<s>
<e>
<unk>
<pad>
▁t
he
on
▁a
in
▁the
ti
re
▁o
en
er
▁of
tion
nd
or
es
al
▁p
it
▁c
ed
▁in
▁s
▁and
at
an
ation
is
▁to
ar
▁w
ing
▁f
ent
▁re
ro
▁b
ec
ic
▁d
▁m
ou
om
le
ment
▁C
ve
▁S
as
▁th
il
▁A
ce
20
ra
▁T
▁e
▁for
▁h
si
▁n
200
▁pro
ri
ol
▁con
st
▁on
▁(
▁I
▁be
ur
ly
ter
lo
▁1
▁that
ts
ations
im
em
▁P
omm
▁The
▁as
ul
te
ate
▁de
por
ver
▁M
vi
ity
▁U
ith
▁N
▁it
res
▁su
▁g
gh
▁with
se
ir
▁R
oun
▁is
ci
et
▁u
▁l
ff
▁ac
▁by
ad
ld
ab
▁G
ac
port
ational
▁al
sion
um
▁res
▁D
▁200
▁st
▁or
▁par
th
qu
▁ex
tic
end
ers
ion
her
op
ain
ud
▁E
▁In
委员
▁an
ted
ren
tive
委员会
iz
国家
▁Un
会议
▁im
ess
ited
el
ties
▁F
uc
ary
▁St
tern
ge
un
▁no
ist
id
▁ad
联合
▁at
▁Comm
▁O
▁en
▁wh
▁its
lop
velop
emb
ance
▁2
ould
ution
▁are
▁United
问题
ther
am
and
pec
ut
国际
pp
ount
eral
▁B
▁W
us
ak
联合国
工作
ew
▁H
▁inc
our
gra
ork
ig
▁cont
ternational
ated
over
ep
ay
ates
▁Nations
ill
报告
ure
ven
ch
99
▁imp
发展
▁was
od
▁sh
▁Con
ments
est
rom
lic
ial
▁develop
▁ag
eneral
for
rou
▁reg
ore
▁le
▁me
▁we
▁com
▁from
▁3
ap
组织
os
if
ard
▁Sec
oc
ich
itte
ant
red
form
ia
▁app
▁count
▁rec
▁L
ittee
▁which
igh
all
ission
▁comm
▁ha
uman
overn
▁v
▁ch
sid
so
▁not
ub
able
▁their
▁Committee
nder
ies
▁dis
提供
lud
关于
gan
mm
vid
政府
ces
ace
▁he
▁international
▁States
lement
方面
▁sec
ord
▁have
▁co
▁comp
▁ri
olution
per
▁per
ress
ty
ran
cial
▁has
▁righ
▁eff
ision
以及
▁As
▁J
社会
tions
▁“
▁all
ust
hi
▁under
ret
),
ganiz
▁acc
▁5
min
决议
▁4
▁work
gramm
▁ar
cil
▁this
ries
▁report
ous
▁includ
▁pre
▁ne
行动
代表
pport
▁Coun
执行
特别
▁sub
ence
▁other
我们
ow
ild
▁also
方案
包括
▁在
▁pe
resent
▁Council
情况
其他
eration
▁so
iv
机构
秘书
这些
通过
10
一个
ari
su
有关
进行
▁resolution
安全
▁been
urity
ice
erv
▁will
duc
age
ect
low
ession
▁had
▁countries
▁should
▁pol
▁requ
▁provid
▁development
overnment
omen
ru
▁UN
pon
og
▁ass
ber
di
ublic
▁human
tit
ms
▁implement
▁Pro
人权
▁pl
ult
▁dec
ember
eren
▁conc
公约
妇女
aw
ative
ech
ble
199
理事
vention
.1
ry
cip
▁rights
pecial
大会
ities
ric
▁y
ign
ome
▁tra
ph
▁inform
▁Ass
活动
理事会
00
▁Secret
onom
▁would
经济
eting
▁rel
▁int
▁were
建议
▁proc
▁po
hen
所有
ical
view
rib
▁support
合作
▁6
ves
▁se
项目
ree
ose
ures
▁ob
▁199
roup
▁man
▁organiz
▁un
ire
ish
ct
人员
ke
▁Ch
▁j
▁programm
▁exp
▁cons
▁Re
ear
ges
▁session
ong
reat
ular
/5
▁tak
12
fic
▁fin
embly
▁General
▁K
ase
区域
ue
▁Assembly
abl
ility
feren
▁rep
和平
ual
缔约
儿童
规定
▁such
▁women
▁r
▁including
▁Commission
ors
yst
ern
▁ab
ast
▁national
und
ons
▁issu
▁It
ystem
根据
▁meeting
▁wel
采取
).
▁out
ating
决定
▁Th
General
▁Rep
▁ind
▁appro
li
onomic
ati
这一
▁consid
▁region
enti
提出
▁need
ft
秘书长
ory
tical
▁Secretary
iti
▁7
ade
▁contin
vel
/200
计划
ine
▁information
▁State
措施
▁Af
rough
技术
we
ference
管理
▁system
权利
▁Dec
graph
▁para
/2
▁pers
ection
▁tran
▁am
▁acti
需要
▁Convention
ommend
ex
▁implementation
raft
▁ter
法律
▁law
cy
establ
主义
ot
必须
号决议
▁De
支持
▁bet
)。
▁concern
/1
▁commun
▁establ
▁peace
▁em
▁fac
/6
echn
hed
ainst
主席
▁inv
重要
成员
▁International
vities
les
ail
届会议
stit
▁Government
▁child
▁respon
资源
▁recommend
ticular
pos
世界
可能
努力
▁there
out
ach
ticle
▁cent
▁particular
ten
▁Par
▁activities
ian
operation
加强
▁str
促进
▁pri
air
ources
继续
▁inter
▁made
▁trans
基金
▁ec
▁adop
▁19
▁leg
pe
vision
orld
19
▁through
保护
mit
ag
ost
▁第
草案
ased
▁8
▁effor
ollow
uring
▁Ad
ective
ron
▁meas
▁assist
cc
▁those
系统
没有
▁lo
政策
get
要求
.2
▁serv
ween
▁import
▁Security
▁against
▁V
影响
▁disc
▁di
leg
▁process
▁qu
▁more
▁year
▁between
man
目标
aff
▁ref
▁draft
注意
▁Afric
lear
de
▁ra
▁into
ticip
▁Mr
ffic
▁part
▁ens
确保
▁vi
行为
认为
援助
文件
rimin
▁well
和国
▁Pre
▁over
11
▁represent
▁Develop
▁9
▁finan
▁add
▁2004
▁prom
▁Republic
dition
▁polic
ific
▁conf
▁No
▁techn
ll
▁incre
▁follow
▁security
▁prot
ateg
提交
als
ural
▁regard
embers
urther
先生
▁organizations
▁ro
);
▁inte
go
共和国
▁cap
tain
▁level
服务
▁new
的报告
▁10
▁decision
环境
能力
审议
▁ful
▁cooperation
▁efforts
建立
缔约国
are
▁paragraph
me
stitution
美元
信息
rit
▁measures
ved
▁country
hip
任何
▁el
▁Conference
uation
olog
ism
ef
der
▁sit
协调
▁any
武器
1.
▁peop
uth
举行
ices
▁provision
▁resources
各国
▁particip
ilit
的一
▁We
教育
3.
ime
▁oper
发言
rac
ond
15
▁tw
他们
作为
▁non
bal
agement
uthor
▁For
作出
ration
安全理事会
▁programme
审查
▁Development
▁Righ
实现
▁viol
▁委员会
ized
▁2005
rin
▁can
全球
ters
▁cl
med
非洲
ving
2.
ood
战略
▁address
▁members
ocu
▁rele
enda
▁one
art
部门
部分
alth
斯坦
▁plan
2004
▁num
参与
事务
30
▁2000
vis
▁contrib
▁whe
主要
iod
..
ization
▁regional
▁fund
▁them
的工作
▁Rights
▁propos
这种
▁Ar
vant
irst
▁我们
议程
▁Group
ination
▁Human
之间
au
fore
ards
▁assistance
▁use
ied
期间
▁respec
▁Ex
lobal
▁Is
sible
▁they
讨论
使用
▁children
▁An
▁group
▁equ
可以
▁Or
有效
考虑
▁mat
ful
人民
▁-
ency
sive
▁ensure
rent
解决
小组
▁these
▁issues
jec
▁may
▁mon
6.
领域
因此
代表团
led
sident
▁who
研究
ivil
ight
2005
7.
▁order
int
ks
▁present
ction
预算
▁period
ining
政治
▁economic
▁provide
▁pur
ake
land
▁us
ject
vent
itical
4.
地区
▁his
▁public
ports
▁financial
viron
▁accord
educ
▁author
▁further
开展
tice
reng
▁li
▁time
▁than
ute
▁Special
▁developing
ished
▁rem
▁sa
ium
▁des
▁ann
ally
冲突
▁review
ens
方面的
▁15
arm
条约
enn
vironment
up
uild
ruc
▁social
作用
ame
持续
8.
▁set
▁form
▁docu
▁number
▁special
实施
ality
▁exper
特别是
ability
支助
loy
▁Ag
atives
▁Off
▁article
then
关系
▁effective
ris
增加
rengthen
贸易
ced
▁commit
▁fi
发展中
ote
pri
hie
注意到
特派
一些
▁pos
▁achie
2000
udget
▁bas
指出
▁Office
very
▁must
其中
▁Organiz
表示
sts
▁Al
Ad
▁relevant
特派团
▁At
▁This
▁within
.4
ever
gramme
▁right
相关
▁programmes
▁educ
▁establish
▁people
▁Min
▁some
秘书处
ariat
▁offic
▁view
▁up
▁services
▁could
ety
得到
▁20
▁institution
000
ide
▁item
ang
par
▁adopted
ploy
▁two
com
oll
one
▁end
ered
程序
▁provided
▁but
意见
一步
▁impro
rincip
Add
▁addition
▁deleg
act
▁take
▁bo
▁gu
ack
sib
发展中国家
▁President
▁Co
uclear
▁He
stan
取得
进程
▁staff
▁k
▁state
▁prac
▁areas
ral
▁strateg
▁continu
▁strengthen
资料
强调
▁our
pt
▁main
▁shall
vers
犯罪
▁do
第二
rol
▁only
已经
ror
▁sign
工作组
▁community
▁December
gress
reed
▁dem
获得
minist
进一步
▁Y
任务
▁$
ove
▁initi
▁civil
uro
能够
基础
▁cur
必要
问题的
原则
▁sp
▁health
处理
▁held
▁management
ected
▁op
▁Le
arch
▁ext
▁So
ners
▁parties
人口
▁political
cal
的国家
尼亚
一项
▁situation
/4
▁action
▁off
ases
的情况
▁En
ender
参加
ning
acity
▁av
法院
以便
uilding
erg
ament
▁conflic
ulation
行政
▁Ec
▁att
▁这
ass
的是
duction
▁min
机制
3,
▁continue
▁account
培训
▁global
▁during
▁mar
lu
▁Organization
因为
的问题
共同
ort
▁submit
ince
说明
▁Am
责任
▁[
ained
-200
及其
▁Ind
人道
提高
的各
▁es
▁party
▁agenda
▁inst
ram
):
▁Programme
arian
▁Euro
ecess
pl
▁spec
ix
专家
til
▁respect
日第
tor
▁protection
中心
和其他
oura
▁12
目前
▁important
确定
val
中的
联盟
▁accordance
9.
1,
▁Pe
歧视
框架
办事
▁being
▁On
充分
aj
amp
▁Work
old
▁Europe
outh
恐怖
5.
its
附件
▁capacity
▁policy
次会议
▁agree
▁taken
▁years
会员
ok
ound
评估
▁discus
办事处
▁reques
利亚
ise
它们
伙伴
13
▁Rec
▁education
▁person
ting
▁among
正在
illion
制定
▁legal
标准
tim
▁appropri
调查
xt
▁princip
司法
办法
14
▁world
平等
oint
人的
制度
维持
▁require
利用
irect
ines
cing
▁following
会员国
overnmental
▁Member
itor
全面
▁aff
▁Africa
由于
/3
缔约方
▁Bo
▁necess
▁role
7,
▁budget
暴力
欧洲
ina
▁recommendations
▁cri
▁where
▁environment
民主
▁high
▁first
▁World
sition
建设
▁prior
owever
▁bec
决议草案
keep
▁coord
安理
18
如果
ourt
ilities
ework
咨询
ug
▁persons
滋病
ys
ramework
开发
”,
具体
lar
适当
▁2.
艾滋病
▁Prot
ans
▁ques
方式
部队
▁progress
1999
eld
数据
identi
高级
▁rece
ogn
同时
▁call
▁proced
▁current
aking
工作人员
▁training
▁consult
▁established
cies
ption
减少
安理会
une
▁assess
ob
▁gi
ily
▁general
▁def
文化
▁mand
CN
▁indic
范围
家庭
难民
16
——
▁reports
可持续
▁Economic
king
人道主义
进展
ange
itarian
▁access
▁document
▁soci
用于
▁most
.3
ile
▁nuclear
▁Social
协定
许多
▁ur
ocra
承诺
▁both
▁Pal
▁2006
▁bod
正式
▁Parties
消除
▁consider
▁enc
ID
义务
▁为
▁Govern
▁appropriate
ennium
ss
机会
echan
now
▁integ
▁if
lig
▁该
▁sust
ite
ared
▁1.
▁about
▁—
自由
议定
巴勒
新的
▁full
2001
按照
2006
巴勒斯坦
▁related
17
▁technical
eth
▁express
▁gender
▁invol
▁identi
ize
governmental
▁avail
的第
apons
欢迎
▁Dep
基本
▁stand
▁联合国
▁此
▁necessary
▁car
▁June
tention
以色
ired
以色列
ential
而且
ainable
round
2003
sibility
▁Palest
设立
▁lead
应当
▁我
ustice
▁make
▁working
▁mission
ban
IC
鼓励
ology
▁African
ene
条件
▁《
▁terror
▁13
overty
▁oblig
ings
ird
议定书
▁ent
ner
▁因此
协助
ended
▁occ
reaty
▁mechan
50
gin
▁basis
做法
费用
▁30
rimination
▁institutions
▁coll
keeping
▁conflict
encies
rab
8,
rael
pr
isl
日至
9,
▁contribution
方法
▁many
▁possible
▁14
▁million
uly
ious
laration
ultural
▁Working
sel
非政府
▁dat
▁关于
▁vari
▁applic
▁provisions
ents
严重
ajor
▁consideration
▁same
尤其
▁framework
规则
国际社会
ants
恐怖主义
造成
▁Res
row
▁violence
ocol
▁proble
▁Israel
负责
▁Board
ules
具有
ister
▁partners
▁foc
▁ser
5/
资金
ition
ivers
监测
▁delegation
ater
ays
ough
rug
▁comple
aim
ined
希望
riminal
▁sc
ateral
airs
是否
武装
大会第
预防
▁groups
存在
▁trade
▁issue
2,
▁pop
▁Gu
)、
▁major
▁Dis
25
erman
宣言
ov
▁encoura
法庭
非政府组织
▁when
ib
▁case
▁humanitarian
▁before
这个
有关的
▁Cent
阿拉
涉及
CO
▁field
▁July
》,
性别
▁meetings
形式
▁since
▁importance
tors
领土
come
▁European
eric
▁enh
▁concerned
▁exist
allen
▁Chair
▁remain
▁recogn
▁include
▁needs
安排
地位
第三
事项
anding
▁upon
的人
应该
▁policies
▁poverty
发生
协商
不同
TA
ept
▁To
积极
▁Pol
▁此外
ecu
artment
▁3.
▁cor
种族
最后
sions
接受
▁ow
ages
▁available
▁proposed
▁deb
▁med
2007
▁cases
受到
▁Fund
istan
▁16
9/
改革
▁Union
第一
▁without
▁legisl
▁National
▁Reg
av
提出的
国家的
重申
▁18
之间的
结果
开始
▁indi
各种
▁increase
ently
但是
▁go
▁diff
▁note
时间
▁II
▁particularly
ployment
▁improve
报告员
jects
atory
inian
▁Secretariat
▁Court
优先
epend
阿拉伯
产生
▁three
▁New
▁achieve
▁fam
投资
▁bi
▁monitor
▁intere
arge
▁mul
pportun
▁Fin
▁adv
0/
▁sector
▁Women
fter
▁local
比亚
▁guid
一般
谈判
▁fore
rehen
ged
▁inf
armament
议程项目
选举
▁aw
土著
teur
▁focus
▁considered
ah
▁Action
porteur
ip
▁resolutions
oting
▁ste
fication
对于
ilitary
▁Governments
这方面
▁participation
认识
▁area
▁jud
▁developed
临时
▁challen
fy
ctions
履行
building
atus
▁submitted
▁17
▁dist
rehensive
▁promote
▁specific
▁2007
成为
atis
▁place
独立
▁Palestinian
▁Arab
例如
▁Article
eptember
▁•
range
▁cre
text
▁Serv
sec
成果
规划
国内
0.
▁noted
vidual
▁based
▁obs
ause
▁undert
监督
▁annex
▁September
批准
▁receiv
▁control
当局
▁see
记录
的国际
▁data
▁society
▁Law
▁ben
▁result
▁opportun
soci
▁six
termin
▁stud
▁tow
▁根据
▁conduc
▁Report
▁communic
sh
▁May
▁question
▁claim
omes
▁Tra
▁Department
▁11
ober
▁differen
委员会的
hes
uture
▁weapons
▁administ
两年
”.
卫生
▁Americ
▁like
并且
▁Mission
挑战
▁agencies
ind
▁each
DP
aren
关切
帮助
ecutive
生产
▁context
▁Declaration
fied
mber
key
设施
▁great
▁Protocol
▁aim
生活
▁representative
▁bodies
▁There
▁nat
公共
▁individual
enous
uge
▁这些
▁Represent
▁required
▁men
5,
sequ
ditions
ceed
▁levels
2008
▁Aff
igenous
▁said
ternal
集团
equ
▁sel
分析
▁clo
see
nel
23
▁facilit
▁operations
alf
apporteur
▁fun
以下
维持和平
▁after
▁Se
ocratic
irc
▁val
▁various
ned
▁produc
▁Nove
▁November
rative
org
ences
一致
▁contained
visory
▁Pl
▁good
lp
21
公司
ruction
国的
▁future
ctober
vate
实际
▁resul
▁High
发达
▁beh
▁pursu
▁4.
▁mod
年的
▁deli
con
地方
▁2003
▁lim
▁October
ital
立法
▁long
▁Su
裁军
▁help
▁requested
▁request
▁comb
ank
▁while
在其
▁representatives
▁requirements
▁instru
▁agreed
▁Rapporteur
▁know
▁Sub
ture
▁2001
mall
专员
▁ph
▁additional
24
状况
拉克
▁sustainable
尽管
会议的
otion
cept
2002
day
ators
goti
呼吁
利益
部长
关注
▁attention
▁reform
特别报告员
▁benef
规定的
▁approach
非法
考虑到
▁Man
ient
一种
▁second
▁used
uch
禁止
▁prepar
▁substan
办公
现在
性的
现有
▁grow
▁Affairs
防止
▁Peace
26
经费
tal
▁Com
▁clear
▁official
▁mandate
abor
财政
▁However
仍然
pril
reg
刑事
伊拉克
ked
空间
军事
变化
tig
打击
完成
▁project
▁signific
内的
▁military
UN
standing
▁saf
▁towards
▁March
社区
hile
▁ris
az
业务
IV
▁El
mp
的权利
稳定
▁April
论坛
知识
▁请
▁entit
执行情况
read
31
▁now
▁concerning
美国
发挥
....
▁statement
rated
综合
▁impact
限制
▁comprehensive
各项
五十
▁decid
▁establishment
尤其是
▁organization
▁population
▁conditions
▁addressed
▁above
介绍
▁means
itation
▁relating
组织的
专门
▁given
▁prevent
▁member
other
目的
▁supp
同意
anu
izing
健康
▁South
raq
loc
▁rules
表明
ource
)(
▁land
改善
▁territ
如何
tices
两个
▁govern
▁ear
最近
制订
▁anal
▁authorities
▁negoti
首脑
以来
4,
局势
ness
ories
▁enti
cho
▁vic
▁Z
▁本
fer
▁continued
▁responsibility
▁cer
个人
▁Iraq
保障
ross
核武器
▁allow
这样
▁Ann
▁vol
联邦
.5
▁peacekeeping
▁refl
受害
印度
ract
遵守
和国际
▁projects
aced
领导
对话
和第
roduc
▁dep
▁rest
phas
tives
千年
asing
27
ately
du
之后
sian
▁Me
▁te
▁proper
▁force
▁prep
▁tre
▁cour
pecially
案件
条款
atic
chool
▁2008
纳入
直接
▁Representative
ues
办公室
▁private
员额
收入
控制
▁expressed
28
▁significant
▁examp
AC
▁status
联系
ring
提供的
伙伴关系
指导
▁Dem
▁pay
▁fact
ional
▁nor
ccess
▁sex
isms
/62
ulations
▁secret
▁entitled
CR
金融
▁therefore
明确
▁monitoring
erc
ower
istry
▁他
sp
”。
▁fully
mar
22
sia
威胁
广泛
一次
ai
市场
扩散
▁5.
40
ribun
》(
erial
▁post
▁step
西亚
▁armed
▁spe
更多
▁Executive
不能
的规定
两年期
▁four
ope
▁experi
一份
过程
▁coordination
▁Nor
▁const
▁existing
▁principles
针对
▁sti
结束
▁her
anuary
▁especially
▁Act
▁whether
▁very
▁perform
omestic
6,
ialog
aci
扩大
联合国系统
II
的影响
所需
▁systems
▁my
的一个
IDS
的重要
▁effec
rule
▁obligations
▁care
eb
的所有
▁January
▁Fed
▁constit
罗斯
ifty
某些
▁justice
vious
4/
之前
▁UNC
▁discrimination
▁subject
▁real
▁beli
条第
vestig
▁econom
▁increased
iness
60
▁determin
观察
▁mechanisms
采取的
▁direct
一级
举行的
准则
倡议
采用
anel
内容
be
▁practices
▁Vi
评价
▁terrorism
公民
▁commitment
▁With
保证
适用
不是
文书
▁rule
一切
▁way
ialogue
▁included
捐助
银行
▁independ
▁invest
▁traffic
企业
保健
▁regular
irm
▁Minister
▁Mon
科学
eria
▁design
的活动
▁secretariat
基金会
▁agreement
ator
俄罗斯
阶段
▁procedures
▁ins
▁received
的努力
tics
组成
lements
经验
▁small
保留
可持续发展
▁total
▁results
收到
▁Ms
▁Cont
▁bro
▁technology
▁eval
计划署
urn
提供了
承认
▁Sp
▁gen
女士
pects
IS
因素
▁success
▁reporting
▁vis
▁Ter
▁对
回顾
重新
▁contributions
▁coun
违反
▁domestic
▁behalf
增长
less
29
▁act
▁Sum
▁consultations
reedom
▁adoption
▁occup
▁welcom
ife
符合
第十
财务
▁Inform
▁2002
结论
推动
请求
发达国家
EF
raw
illennium
▁legislation
上的
▁taking
ars
▁material
▁record
▁decided
▁posi
▁threat
▁tex
▁strengthening
▁Child
1998
▁198
ethod
▁circ
▁6.
刚果
▁disarmament
rial
ological
abour
▁terms
审计
▁liv
▁indigenous
▁interest
▁standards
第四
语发言
▁sur
▁Direct
EP
iter
▁refuge
▁Chairman
下列
▁recent
arter
和社会
▁Administ
就业
▁eng
▁amount
▁23
长期
关键
force
▁school
▁000
加入
▁refer
▁providing
ding
▁expec
ivision
协议
贡献
▁key
这项
▁civilian
work
▁regarding
▁change
管制
和平与
普遍
▁la
新闻
▁different
amb
reatment
▁decisions
警察
重大
统计
▁net
▁proceed
▁det
全国
的能力
人类
ermanent
ES
▁主席
▁Q
民族
olid
反对
尊重
非常
▁personnel
上述
▁funds
虽然
助于
.,
▁Permanent
▁challenges
▁open
感谢
▁example
▁Advisory
题为
rime
▁Mal
▁increasing
▁ret
▁1999
tims
▁HIV
工作的
▁East
无法
,000
▁objec
198
▁initiatives
▁war
▁Inter
▁有
侵犯
▁reported
▁police
通过的
自己
pose
__
年度
群体
▁serious
达成
恢复
ergy
▁struc
▁problems
了解
▁prevention
▁because
然而
活动的
▁adequ
▁relations
结构
▁emphas
那些
▁criminal
▁coordin
内部
▁previous
▁response
出现
▁investig
▁reas
声明
▁Acc
▁dialogue
▁common
土地
登记
成员国
▁method
▁Millennium
▁costs
ugust
73
贫穷
va
▁last
elines
▁Director
▁pres
▁maintain
▁Democratic
所述
ancing
▁joint
lusion
▁assessment
ists
艾滋病毒
▁These
▁emerg
程度
定期
CC
▁Imp
编写
ribunal
▁explo
列入
成功
▁family
ax
▁lack
aus
▁秘书长
▁month
▁America
的法律
的建议
▁22
▁28
▁freedom
▁Treaty
the
从而
ifth
▁August
▁strategy
的各项
▁estim
▁deal
有助于
重点
ebru
▁environmental
ebruary
▁25
▁sever
▁arms
ath
ering
外交
sed
▁priority
mission
▁31
▁rese
▁associ
▁analys
based
▁cred
▁actions
▁peoples
宗教
合同
tification
▁active
▁ill
▁diffic
▁February
▁still
lands
▁Ministry
多边
及社会
面临
首脑会议
▁ess
▁partnership
经常
▁与
6/
▁elect
▁third
是在
▁2004,
多数
▁arrange
▁sim
海洋
者的
原因
▁provides
co
eal
usiness
需求
▁They
▁24
改进
六十
▁conclud
ulture
总统
rant
通知
机构的
alling
▁21
duce
欧洲联盟
use
▁carri
的最
确认
▁Commissioner
▁head
▁several
▁biennium
▁Ab
▁如果
ward
▁event
▁promotion
ls
▁7.
▁annual
材料
2009
旨在
▁Service
▁victims
rust
事件
发展目标
hem
号决定
经济及社会
▁does
▁transfer
美洲
阿富
▁space
ledge
▁cover
▁prof
完全
▁Plan
阿富汗
own
过去
▁let
▁All
▁did
情况下
为了
angu
定的
日在
▁equality
▁belie
▁text
▁Annex
DC
▁dest
dom
▁enhance
的情况下
;(
rigin
并在
onst
▁lin
分配
▁然而
给予
tilateral
vity
ador
▁water
中国
term
▁strong
▁life
▁observ
▁every
开发计划署
▁how
▁certain
mary
liance
当地
ale
提议
reci
▁missions
▁found
次会议上
▁sug
gent
hold
ada
▁what
法官
▁large
签署
▁sett
索赔
民间
宪章
星期
▁conven
▁matters
▁documents
▁Aust
提到
▁close
70
▁cultural
占领
▁Offic
1)
最不
▁application
▁strategies
行动计划
实体
1/
aken
ket
现象
危机
▁discussion
的信
更加
实质
手段
进行的
▁low
▁UNDP
▁dated
▁King
经济及社会理事会
▁大会
▁due
▁cost
▁26
气候
▁risk
▁requests
各方
▁objectives
▁drug
▁See
重要的
▁agreements
▁broad
▁service
aged
AIDS
▁leaders
该国
▁own
▁summ
ready
森林
▁play
veness
提案
万美元
所载
筹备
行动纲
整个
▁还
oy
erb
电子
伊斯
▁sexual
▁trafficking
▁Afgh
▁不
宪法
▁Sw
▁pot
imin
高级专员
▁acts
将在
▁reduction
▁funding
指标
进行了
pro
iferation
▁less
▁protect
▁While
▁already
ania
▁government
.9
的主要
▁Agenda
bit
和发展
▁least
arters
▁China
▁exch
▁instruments
国际法
风险
▁don
导致
eneva
/59
▁Charter
政府间
▁appreci
▁crime
▁procedure
▁treaty
▁free
危险
自然
后续
总部
imate
权力
▁might
各国政府
贩运
债务
认识到
▁在这方面
所作
ending
加拿
加拿大
▁practice
估计
▁operational
相互
▁Information
规模
ging
▁27
▁planning
出口
▁list
拟订
anda
▁five
紧急
▁Afghan
▁however
伊斯兰
反映
通过了
之一
ev
▁Further
ICEF
本国
▁Agree
编制
选择
▁growth
苏丹
▁final
享有
aran
▁8.
▁effic
▁Division
▁gir
▁Peop
▁conn
uations
▁Can
ising
▁called
运动
▁That
3/
农业
应对
▁prepared
▁Tribunal
▁needed
▁gra
宣传
▁Summit
落实
▁promoting
▁essential
▁section
men
▁wish
tt
▁recommended
若干
方案的
eg
王国
ier
ques
%。
粮食
构成
,《
emin
▁Fore
运输
儿童基金会
▁violations
▁Kingdom
专业
though
▁even
▁administrative
全体
▁forces
不可
▁Rus
ticles
▁langu
▁exerc
lam
▁employment
ior
生物
▁research
ulated
非正式
ides
▁she
quarters
8/
level
▁由于
授权
ones
不断
2)
▁involved
日内
▁Geneva
▁contract
人们
▁Congo
▁ver
▁adequate
▁obj
保持
▁implementing
uted
里亚
acy
▁Li
残疾
▁posts
▁Tran
▁responsible
网络
▁但是
▁vote
同样
维持和平行动
dic
▁Other
▁Meeting
▁Panel
今后
▁facilitate
解释
对妇女
▁matter
PA
▁relig
▁Bank
▁aimed
lated
大的
▁property
赔偿
常驻
▁Coven
准备
▁give
▁proposals
日内瓦
▁sent
▁hig
▁Trade
贫困
▁issued
敦促
utes
▁char
ords
ather
▁consist
▁cris
事实
amental
▁pursuant
▁Territ
shop
tiveness
补充
▁steps
不扩散
▁multilateral
thern
-20
▁contribute
▁meet
OP
▁approved
▁better
▁Tur
▁bal
访问
▁contain
la
日本
.6
加以
ically
担保
aring
▁Techn
拟议
▁business
实行
▁organized
▁committed
▁2005,
▁principle
私营
▁caus
ilateral
erson
协会
▁understanding
▁fe
令人
▁它
感到
和技术
TAD
1997
▁Bel
▁food
▁Under
民主共和国
▁past
转让
▁san
▁undertaken
▁statements
取得的
▁fifty
aster
▁supported
组织和
▁sen
unt
▁stress
贸发
来自
▁2009
▁recommendation
缺乏
▁29
IN
▁problem
oper
▁aspects
gether
▁together
areness
itiz
▁hold
▁greater
ulner
的方式
▁9.
来源
▁bri
民间社会
毒品
ode
▁forms
工具
是一个
农村
议会
▁Head
▁Commun
咨询委员会
stances
abilities
▁move
▁goals
imination
ograph
▁Global
▁exam
HR
▁financing
▁Agreement
▁mig
采购
▁position
obil
▁read
▁purpose
外国
▁tas
ferences
巴嫩
帝汶
黎巴嫩
vised
▁2000,
密切
▁hand
修正
做出
资产
▁proposal
失所
anced
▁Em
▁Coord
▁function
▁Cor
修订
▁Covenant
▁laws
流离
udan
▁investment
▁chan
ipment
▁Forum
境内
▁communities
▁best
▁Federation
城市
ections
cienti
line
允许
▁indust
▁treatment
▁reduc
条例
流离失所
ive
mes
▁ground
▁displ
▁took
▁judic
▁rein
▁Non
ensus
ditional
▁Central
▁App
▁analysis
lain
▁delegations
▁Oper
▁vulner
▁expected
▁sugges
理由
▁arrangements
只有
▁building
▁Environment
▁respective
▁you
两性
▁bring
63
ses
▁become
▁study
平民
lementation
apan
体制
▁opportunity
过渡
维亚
▁detail
武装冲突
▁Centre
▁experts
职能
ible
成立
我国
▁basic
▁knowledge
gn
ached
▁fundamental
77
主管
▁国际
召开
财产
▁Sa
▁enforce
▁notes
ints
▁10.
ling
▁ensuring
举办
表决
▁potential
竞争
调整
▁performance
▁guidelines
▁reserv
55
▁Asia
▁strategic
medi
达到
▁通过
▁solution
辩论
ording
发表
GO
rate
▁natural
拥有
▁awareness
▁production
▁Sudan
▁date
▁York
▁identify
鉴于
价值
rast
▁collabor
支付
▁girls
▁Review
的任何
▁另
的基础
▁opportunities
申请
步骤
承担
-3
going
ified
▁affected
58
统一
宣布
▁introduc
交流
side
▁age
》。
ologies
oh
▁为了
▁self
一直
▁foreign
▁Ha
的其他
▁equal
案文
ouse
科索
▁communication
的作用
▁commitments
▁income
via
▁forward
▁negotiations
▁carried
▁light
的目标
化学
▁origin
stitute
科索沃
▁early
▁asse
其中包括
古巴
/60
▁er
尚未
▁Israeli
▁Russian
▁rural
▁Bur
再次
以英
▁plans
▁Leban
▁conduct
▁find
满足
ured
妇女和
▁Count
担任
▁offices
青年
小组委员会
东帝汶
▁Criminal
here
自愿
▁UNCTAD
▁implemented
部署
▁Go
▁market
纽约
▁stated
▁Crime
▁尽管
▁distrib
self
未来
ON
related
▁evaluation
马里
▁nature
专题
学校
劳动
vere
crib
iversal
答复
通信
uty
7/
性和
▁network
yan
vered
必要的
▁processes
crimination
▁exchange
▁evid
▁rate
出版
endit
▁1,
▁limited
受害者
的发展
▁independent
▁concerns
联合王国
▁chap
▁next
▁another
ama
80
teg
▁mechanism
action
ww
▁thus
▁一
人数
udit
▁Management
▁Justice
67
困难
阿尔
essional
以英语发言
决策
的各种
ourth
▁equipment
基于
▁exc
www
iversity
观察员
▁manner
机构和
▁transport
▁alia
行动纲领
▁multi
▁camp
▁Implementation
45
▁employ
▁able
▁put
千年发展目标
少数
▁participate
ised
▁11.
37
能源
rison
▁Cooperation
最不发达国家
▁currently
▁*
▁substantive
ilar
工业
▁refugees
供应
▁organ
公平
人权委员会
arante
范围内
cid
属于
▁pen
政策和
今天
enty
▁Str
劳工
▁Japan
▁energy
ances
▁cooper
hemical
核准
提出了
▁recommends
传统
官员
▁tar
和保护
▁referred
主任
/55
法国
ructure
创造
证明
ression
的决定
任命
enth
to
▁effect
▁positive
49
水平
▁connection
The
ii
DA
▁informed
ification
poses
下午
众国
▁combat
第二十
▁facilities
损害
透明
▁recognized
▁Net
bs
▁return
aid
予以
sibilities
ya
▁reli
▁provisional
▁inten
就是
spec
lia
urement
▁often
▁overall
社会和
▁disp
▁12.
的任务
▁fulf
.10
采取行动
tioned
质量
有效的
▁workshop
▁integrated
▁outcome
而言
支出
移民
35
▁labour
▁During
报告的
▁office
uel
▁del
▁purposes
刚果民主共和国
多样
▁Col
▁reference
适当的
▁UNICEF
▁remains
灾害
▁Assist
▁ty
▁transition
▁articles
▁alloc
osed
▁Canada
▁living
cent
lied
hib
▁questions
cientific
死亡
ler
▁Afghanistan
申诉
▁achieved
▁Recalling
▁authority
▁guarante
塞拉
产品
▁situations
个月
izes
▁presented
ream
商业
重视
untary
ico
▁functions
▁institutional
▁consequ
酷刑
能力建设
▁yet
▁climate
▁fail
邀请
/59/
▁harm
依照
带来
cep
1995
公开
OS
not
▁others
agraph
▁counter
目的是
赞赏
gal
实质性
▁benefits
▁preparation
▁experience
▁draw
不仅
▁Lat
ash
▁items
fficient
uris
一名
▁letter
人力
团体
地注意到
罪行
如下
从事
西班
▁identified
roduction
干事
西班牙
▁ren
▁Comp
▁objective
hab
▁workers
特殊
设备
ght
iary
个国家
▁crimes
CA
维护
ica
▁According
这是
iation
核心
%,
▁expendit
epar
▁views
▁quality
▁carry
cont
▁Tim
生效
▁Educ
▁former
▁back
▁debt
报告中
▁individuals
拘留
▁informal
贸发会议
▁paragraphs
澳大
▁infrast
澳大利亚
▁circum
59
出席
传播
▁Cons
▁rati
▁immedi
▁short
下的
和平与安全
▁2003,
▁expert
▁sessions
▁Cub
收集
ER
▁If
▁met
▁entities
▁enter
//
ttp
Rev
▁categ
isted
机关
▁below
▁effectively
▁transp
▁alleg
▁50
▁compliance
▁primary
▁这一
▁1998
住房
高级别
oral
▁far
rance
-4
▁territory
会者
两性平等
ze
有权
▁done
▁enable
会议上
精神
▁conference
▁Exper
gy
▁governance
▁Institute
▁team
://
不得
亚洲
德国
▁statis
aries
详细
▁exercise
▁crisis
▁apply
▁People
aches
性质
▁regions
十年
▁point
▁pap
aties
公正
气候变化
CP
▁debate
的信息
vo
▁initiative
1996
所涉
亿美元
▁Protection
▁Civil
▁effort
▁making
药物
▁eth
▁air
app
▁Unit
▁brief
▁claims
▁Second
▁ongoing
lamic
此种
儿童权利
观点
讲习
▁separ
/60/
▁Kore
orpor
▁tool
orture
▁German
战争
▁Strateg
▁Supp
comm
适用于
▁enj
▁见
EA
身份
by
idd
第五十
磋商
有利
和联合国
▁benefit
100
进入
▁speak
▁amend
▁enforcement
▁having
▁loss
▁juris
大多数
数量
的经济
。”
卢旺
▁diss
▁Reques
卢旺达
的资料
▁2007,
tial
▁begin
移徙
避免
▁critical
▁compon
▁demand
▁Constitution
▁Foreign
ably
imum
▁involve
ilies
inion
行使
俄罗斯联邦
▁Support
▁Health
利昂
-2007
私营部门
ither
迅速
48
检查
捐款
▁最后
塞拉利昂
iss
▁show
▁loc
▁Add
▁One
力的
男女
清单
大量
ronic
57
▁adj
墨西
liament
墨西哥
交易
▁More
顾问
或者
io
▁Requests
▁indicated
▁laun
这类
人和
▁months
证据
eti
立即
reme
▁safety
▁Her
uter
ounts
/55/
▁dire
运作
▁successful
ours
巴西
此类
讲习班
管辖
▁Bra
ese
▁resource
▁Public
uts
▁complain
ger
筹资
▁accept
审判
▁Mar
▁effectiveness
akes
▁cannot
▁host
职业
selves
ierra
ali
▁integration
▁respond
首先
破坏
伊朗
▁citiz
以确保
▁abs
塞尔
医疗
▁revised
▁reaff
inted
方案和
regional
▁appreciation
大学
寻求
▁虽然
▁Agency
wa
▁conducted
ili
损失
2/
地点
▁会议
工程
▁Leone
▁incorpor
的行为
▁obser
单位
▁communications
十分
▁course
▁Ac
▁Draft
▁today
▁submission
person
alls
of
▁internal
显示
ury
▁altern
▁changes
了一个
nic
▁share
▁twenty
ustom
lies
uting
▁economy
▁infrastructure
▁much
nership
ends
更好
▁agric
▁circumstances
加勒
预期
▁elements
比例
▁Sierra
增强
缔约方会议
▁Some
原子
▁enjoy
▁Sy
事务高级专员
▁proceedings
▁according
▁itself
omin
▁Also
特别代表
尼西亚
定义
起诉
enary
▁First
后续行动
▁encourage
ishment
合法
lications
roliferation
▁Section
妇女的
▁stability
3)
过程中
44
致力
▁elections
▁indicators
障碍
empor
▁13.
超过
▁Regional
▁Political
▁administration
意义
的重要性
▁Austral
▁sources
最高
▁value
▁effects
ires
克斯坦
▁conflicts
造成的
建设和平
加勒比
▁Countries
order
omb
他们的
▁officials
尔兰
▁obligation
▁improving
制裁
资助
▁peaceful
爱尔兰
▁discussions
ave
主题
making
▁target
▁X
领域的
▁reduce
遭受
▁throughout
.”
▁achieving
ana
名单
至关
对其
pris
/62/
ne
icit
▁Children
iddle
▁reason
也是
pite
▁evidence
人权和
优先事项
▁His
▁goods
▁developments
加拉
当事
的执行情况
▁Part
▁NGO
▁commission
并不
▁tim
来文
comes
54
委会
zil
▁power
儿童的
▁interp
arib
venth
▁lear
▁body
rought
year
▁competi
▁court
▁14.
每年
改变
▁minor
计算
全球化
que
▁him
相关的
/2000
▁Iran
▁priorities
tered
pons
Un
know
CT
▁Such
ecting
▁demonst
三个
▁ways
oid
▁Services
▁fav
国民
▁sectors
检察
▁Kos
概念
ify
▁officers
效率
▁opinion
▁She
oung
way
▁poor
▁acqu
地区的
居民
内亚
34
▁calls
依据
▁Trans
,“
▁participants
▁Over
▁compet
专家组
土耳
▁assets
基础设施
▁resol
原子能
HCR
▁obtain
持久
bean
土耳其
▁comments
几内亚
▁recru
▁recon
▁Goals
▁安全理事会
▁UNF
aribbean
vin
▁technologies
▁Korea
趋势
▁top
▁just
ustainable
的行动
▁Code
ovo
▁extent
-2005
▁reiter
▁welcomed
▁consolid
▁operation
的要求
第五
待遇
rorism
▁line
▁除
▁2,
罗马
不足
▁但
arent
人口基金
AR
61
▁Ro
ock
▁subsequ
39
reland
▁III
▁continues
与发展
有必要
mis
ched
ule
▁40
她们
iency
▁upd
分发
▁Caribbean
巴基
III
▁death
通报
▁judicial
货物
▁displaced
▁注意到
▁jurisdic
first
▁then
exico
ication
▁introduced
▁continuing
▁transmit
▁families
巴基斯坦
▁centres
及时
国家和
ature
国际公约
的一些
训练
▁expl
▁name
▁Discrimination
▁100
urs
双方
的代表
apon
holders
▁Since
尼日
▁until
叙利亚
rants
和黑
wide
▁例如
51
▁addressing
▁accom
▁suff
oke
ees
▁defin
47
布隆
拉夫
▁interests
▁regulations
▁abuse
▁议程项目
irmed
acific
布隆迪
▁Force
并将
▁Cy
38
的项目
ually
otes
大规模
▁whose
▁dam
▁France
南非
▁Kosovo
▁Sal
ruption
▁stake
▁Ireland
系列
▁activity
ousing
▁few
外地
▁scope
▁consensus
▁India
▁Administrative
WG
▁wide
▁restric
▁specialized
上午
致力于
分别
技术援助
▁media
illeg
yn
▁whole
双边
在内的
作了
▁writ
利坚
▁instrument
立场
▁collaboration
gl
▁term
tenance
增进
iting
马拉
PR
美利坚
▁gener
▁complete
诉讼
▁UNEP
反应
▁sup
美利坚合
▁invited
国际组织
more
▁Guine
▁compan
78
福利
▁Cuba
号文件
▁2001,
MI
修改
bass
主持
信息和
一起
osition
▁60
和执行
的一项
▁illeg
行为的
切实
▁treaties
▁materials
来说
形式的
▁Germany
▁Be
ersons
▁methods
▁rap
▁Wel
▁compens
▁fight
各级
▁illicit
▁establishing
vey
▁Rw
▁standard
▁structure
90
研讨
emporary
▁themselves
提交的
印度尼西亚
▁2006,
人力资源
▁voluntary
▁Party
▁associated
akistan
▁hope
▁advance
▁capital
rench
▁estimated
enna
▁Brazil
职责
▁Six
土著人民
▁Let
lusions
▁believe
特别会议
ued
每个
复杂
cale
ored
应在
威特
▁delivery
ST
▁Headquarters
56
数额
种族歧视
46
科威特
ites
提交人
维和
日益
/2005
▁doll
索马里
▁highl
▁guidance
ptional
itable
▁ge
ics
inth
▁Guinea
本身
▁citizens
斯拉夫
ysical
▁Dar
EC
审议了
▁aid
的机会
▁destruction
▁terrorist
引起
》、
▁Timor
的承诺
▁reach
也纳
▁Ph
▁16.
方案预算
维也纳
▁relationship
的一部分
▁higher
▁appoint
▁z
▁UNHCR
▁practical
特别是在
ugos
▁这种
▁vulnerable
ulate
▁travel
数字
gov
▁Rel
▁就
▁目前
▁universal
rop
区域和
▁satis
▁ww
▁15.
地雷
▁Yugos
一届会议
ades
▁rates
▁avoid
研讨会
媒体
▁www
▁Int
预计
公众
▁cru
irms
ij
日星期
/2004/
重建
的合作
▁同
▁actors
▁第二
南斯拉夫
▁similar
▁press
manent
74
主权
理解
的措施
后果
▁inn
以前
吁请
▁deep
rian
美利坚合众国
▁1999,
有限
▁Mexico
▁create
▁bre
什么
海地
在第
▁Associ
acter
▁young
RA
rary
75
ibility
▁export
提请
▁Per
各自
uwa
的安全
time
合理
▁Disarmament
▁adopt
▁creation
▁Sh
▁Islamic
▁difficult
▁elimin
▁reached
2004)
商定
United
斯洛
背景
指南
更正
▁table
▁prosec
腐败
▁welcome
▁trend
视为
▁wee
妇女地位
▁bilateral
附件一
种族主义
▁Nig
36
之外
▁includes
荷兰
发出
▁describ
▁Rom
▁assi
▁range
Ch
挪威
日期
aign
有效地
不会
▁mut
▁medical
▁maintenance
事规则
▁Som
所列
来越
▁Burund
▁Joint
便利
虐待
▁using
特设
▁plenary
▁Lebanon
▁sixty
▁Des
时候
▁mobil
▁encouraged
次级
救济
cience
▁relation
越来越
▁forest
▁Nuclear
埃及
任择
▁regime
▁又
▁achievement
▁她
alities
▁build
▁Sustainable
▁Education
▁pun
portion
AS
▁central
常驻联合国
▁again
提及
规划署
▁democra
律师
上文
igned
行政和
特别委员会
▁implications
仲裁
▁day
▁legislative
如此
▁improved
▁distribution
eed
53
的原则
▁applicable
评论
1990
举措
载于
我们的
在国家
.1,
▁Equ
印发
SR
▁conferences
▁difficul
▁civilians
指控
▁erad
▁Vienna
中东
年期间
类似
上诉
rest
-2009
▁表
▁ce
ension
▁Prevention
▁18.
▁Bos
.7
▁follows
▁2004.
达尔
sight
rict
▁自
▁supporting
▁factors
跨国
ik
▁17.
▁Australia
在该
▁Table
▁settlement
▁58
课程
请秘书长
coming
▁struct
▁sanctions
▁fulfil
▁Elimination
和建议
以上
verse
▁Indones
▁Furthermore
研究所
▁回顾
岛屿
查明
和经济
▁ethnic
isters
33
▁arbit
▁perspec
拉丁
的政策
▁Drug
阿根
ercial
▁tro
▁stakeholders
女性
阿根廷
:(
dis
有所
容忍
不应
与联合国
任择议定书
▁Latin
职位
▁Chi
▁economies
oph
kill
▁paras
lined
才能
▁Members
哥伦
投票
CE
▁consultation
▁Pakistan
▁1990
▁convention
▁West
kets
▁adjust
▁Ge
哥伦比亚
▁如
▁reflected
▁Operations
▁crit
至少
介绍了
AT
在这方面
本报告
有可能
的新
大利
▁directly
▁Kuwa
▁Middle
为此
拉丁美洲
在联合国
▁anti
最终
▁welcomes
▁Eth
▁complex
▁recover
良好
▁partnerships
官方
意大利
▁重申
▁hist
flic
▁Third
▁从
的资源
tm
临时议程
▁task
▁forum
/2004
太平
▁hon
▁concluded
其它
tieth
项目的
欧盟
联合国宪章
建立一个
▁troop
ittees
▁days
/0
殖民
太平洋
▁jurisdiction
酌情
供资
历史
▁2005.
物质
瑞士
委员会主席
心理
jected
economic
▁applied
▁subsid
大使
aly
udgetary
▁Liber
以外
号决议第
▁rather
▁urban
▁将
▁imm
▁cross
▁paper
▁工作组
▁your
▁products
▁occur
▁鉴于
ainstream
▁据
▁requires
▁consequences
▁permanent
▁character
istic
▁tri
▁Slo
国际合作
▁sol
▁emb
____
▁Prom
▁schools
真正
▁consistent
▁mind
保险
▁chemical
与会者
▁periodic
▁procurement
▁Cl
▁Community
alled
▁Weapons
使其
ciliation
的政治
▁seek
日和
▁neg
▁ve
national
▁缔约国
▁exploitation
1994
▁balance
▁repl
herlands
不利
CCC
设计
波斯
▁Official
一般性
非洲联盟
的儿童
随后
▁live
▁Burundi
▁events
▁Recommend
举行了
富尔
tegration
acities
▁Pacific
原子能机构
愿意
应用
文化权利
协调员
acks
▁custom
▁spons
▁exten
-2
比里亚
工作队
的意见
▁presence
的支持
▁electronic
▁confid
▁55
正如
.4/
▁Coordination
利比里亚
egu
将继续
▁Bosn
▁approaches
fact
模式
▁mandates
分子
▁Item
▁illegal
最佳
都是
发现
问题国际
▁mass
/2000/
▁Administration
▁useful
成本
▁leadership
pet
▁jo
▁led
umption
▁parts
共同体
达尔富尔
▁Haiti
▁Great
▁majority
rence
▁Polic
▁ple
▁religious
年龄
habilit
▁goal
▁French
▁initial
▁suggested
方针
▁disaster
OM
▁Author
▁capacities
账户
▁housing
▁Ambass
▁campaign
法治
▁discussed
力量
▁detention
32
九届会议
▁points
▁conclusion
赞扬
取得了
yond
▁2010
语言
起草
权的
79
76
所有国家
CON
▁fem
世纪
ureau
▁mean
出版物
▁Territory
另一
lusive
▁external
执行局
截至
flict
aria
▁决定
vereign
科特
知道
▁Chief
▁应
通常
▁0
▁signed
ua
plom
脆弱
以及在
▁either
波斯尼亚
▁Exp
▁violation
▁brought
行动的
▁paid
常设
一样
▁sovereign
政府和
........
onia
各个
▁ide
used
▁Inv
IT
▁dollars
▁languages
克罗
▁appeal
ung
▁audit
▁util
总体
集体
▁subregional
▁System
▁Ky
许可
▁receive
▁Conc
▁semin
ield
▁US
领导人
▁supply
▁inj
▁torture
经济和社会
▁once
的发言
货币
少年
特定
▁他们
▁interpret
有些
将其
/2001
▁Follow
制止
second
国籍
itment
足够
ubl
和犯罪
▁outside
▁Ib
▁emergency
tise
▁physical
▁reasons
预防犯罪
LO
而不是
的做法
网站
ria
人道主义法
▁detailed
43
▁serve
In
▁Nam
▁core
▁skill
规范
的有关
和解
erous
▁($
▁prison
EN
▁1997
迪瓦
▁challenge
urance
rete
▁Ques
技术合作
▁Mor
41
▁Adop
▁stressed
resolution
科特迪瓦
克兰
▁Peacekeeping
停止
权利和
.8
▁permit
▁donors
PT
▁adap
▁clar
▁1995
▁clearly
osp
▁flow
▁obst
▁Indonesia
andid
▁sufficient
学生
65
服务的
满意
▁integr
日的
拉圭
af
72
▁perpet
▁Although
itness
▁fis
发展援助
yl
还是
▁Princip
或其他
▁American
埃塞
42
pes
ening
载有
glish
98
▁enterpris
教育和
延长
▁expand
者和
▁ban
人权事务高级专员
俄比亚
的决议草案
▁du
二届会议
▁prohib
看法
▁covered
还有
世界银行
▁Rwanda
埃塞俄比亚
unic
abit
ects
当前
污染
男子
▁21.
▁Argent
安全理事会第
▁link
▁thir
机构间
刑事司法
gypt
▁concept
▁Space
▁manag
解决办法
cell
▁19.
▁withd
▁words
▁一些
▁traditional
群岛
▁国家
疾病
AM
▁timely
▁Bosnia
▁Netherlands
明显
▁By
第六
路斯
▁mo
发展的
riti
▁raised
浦路斯
▁enabl
arency
发展中国家的
塞浦路斯
▁occupied
▁democratic
▁mainstream
▁Ambassador
▁thank
至关重要
▁involvement
iop
▁compensation
▁et
大约
接触
▁und
▁recently
▁although
▁involving
IF
消除对妇女
工发
▁fl
剥削
和平进程
▁二
女孩
third
▁pat
▁completed
▁criteria
适应
2010
itz
判决
取得的进展
▁candid
▁UNID
▁norm
▁incid
▁grant
ume
▁uni
▁phase
ey
处于
体系
▁UNFPA
uay
▁den
▁mentioned
▁efficiency
以期
比较
流动
ishes
▁around
▁credit
▁collective
主流
瑞典
▁Persons
▁soon
相当
检察官
ala
aza
zegov
amber
▁urgent
▁model
zegovina
▁language
ously
集中
▁Labour
▁extra
往往
itim
roll
次区域
附属
订正
化学品
阁下
▁fra
▁Moreover
的结果
尼日利亚
weapon
▁Note
议事规则
ought
▁Legal
边界
框架内
干达
spoke
对该
▁Supplement
▁positions
fur
▁Session
乌干达
▁corre
争取
的义务
▁Optional
asion
▁intended
▁Herzegovina
enced
未能
▁beyond
全部
▁deployment
▁here
▁advoc
▁2008,
utor
执法
▁judges
▁sal
排放
▁forth
bur
▁其他
▁Wh
武器和
▁renew
的社会
▁col
▁concrete
▁educational
▁sched
▁created
▁designed
▁项目
umb
▁Prosec
▁Recogn
yc
效力
下降
▁conclusions
▁Syrian
proliferation
▁internationally
▁relief
-5
决心
▁freedoms
人员的
▁down
ancial
▁Jama
HC
的挑战
▁youth
赞同
平衡
的联合国
▁Bang
ventions
▁entire
秘书长关于
▁states
毒品和犯罪
ighth
▁resulting
反恐
途径
打算
lex
▁accountability
orn
▁Reaff
协作
ane
▁comment
▁Fifth
的执行
▁Serb
和管理
▁remained
▁rehabilit
▁negative
▁courts
意识
替代
本组织
外层
▁20.
▁closely
委员会在
▁enhancing
▁mis
中所
年来
自己的
共识
塞哥
▁globalization
▁attem
▁harmon
塞哥维
▁focused
拒绝
外层空间
umed
▁safegu
estern
▁racial
▁prec
▁3,
istration
系统的
遗憾
▁(2
69
次级方案
▁Somal
中央
西兰
▁kill
▁dise
采取了
强制
gol
acts
会议室
剥夺
▁hop
ishing
▁actively
组成部分
采取措施
着重
▁NGOs
管理和
▁pass
▁entry
▁Turkey
▁gap
▁理事会
筹措
programme
初步
▁Association
CONF
▁Bar
▁cohe
tation
▁UNO
这样做
阿尔及
包括在
▁acknow
新西兰
发展和
语文
看到
▁alternative
波斯尼亚和黑
▁delay
▁Cultural
巴勒斯坦人民
毒品和犯罪问题
▁Resolution
XX
攻击
jan
这一点
女童
享受
▁formal
联络
塞哥维那
▁difficulties
核查
▁encourages
摩洛
earch
MIS
▁emp
))
▁Decides
▁culture
▁Norway
▁recovery
年以来
▁Rules
▁improvement
▁publication
▁2002,
▁cooperate
资源的
abitat
时期
资格
▁tax
inary
侵害
▁1996
降低
Cor
vance
▁Darfur
▁My
▁22.
这一问题
500
商品
生命
很多
派遣
▁Docu
▁reflect
▁Lu
摩洛哥
ancy
▁commercial
▁ICT
书面
▁visit
安全和
赞成
▁expertise
▁studies
ingle
严格
现行
国集团
▁withdraw
......
示范
▁look
相同
▁honour
▁Ref
▁ev
▁kind
同一
波斯尼亚和黑塞哥维那
▁religion
▁Ethiop
▁Colomb
▁不过
ton
▁Islands
及其他
为基础
▁作为
:“
大会第六十
更好地
▁undertake
毛里
▁And
▁donor
dep
teenth
地亚
▁stage
orial
的说明
▁acces
候选
▁scientific
▁23.
裁决
▁innov
52
一般事务
▁UNIDO
▁(1
▁Palestine
erland
▁Pop
流离失所者
▁assessments
▁fair
助理
▁Somalia
▁growing
价格
▁Policy
▁independence
将于
prus
▁Authority
不受
外部
治疗
▁penal
▁approval
▁start
▁aut
(1
拟定
▁discuss
▁强调
ealand
那样
的妇女
ninth
▁Technical
▁Zealand
▁billion
参加了
itzerland
62
巴布
▁female
多样性
获取
作出的
产生的
▁59
▁witness
astern
▁legitim
▁membership
第四十
▁democracy
▁Assistance
▁definition
rain
68
缅甸
▁Lib
的一般
▁Proc
▁complement
中期
▁crucial
▁transparency
期限
▁underst
尽可能
▁appear
子女
▁investigation
▁安理会
▁hours
▁Est
▁summary
无论
▁remed
▁measure
▁observations
▁Introduction
▁秘书处
▁prepare
汇编
▁Italy
事务厅
▁Chamber
工作方案
▁Ibid
▁Federal
意味
返回
▁aver
▁construction
▁Swed
▁Room
▁marri
active
菲律
▁diplom
菲律宾
▁endors
化的
补编
劳工组织
▁Cyprus
▁intern
▁reproduc
udi
▁along
这方面的
”(
St
解除
情报
▁欢迎
WP
约束
智利
ell
rea
istered
▁Egypt
▁rac
平均
▁Fifty
▁Bureau
这个问题
诸如
▁委员会还
▁publ
事务部
有组织
的时间
▁Asian
开放
技能
▁Prepar
数据库
工人
表现
ervation
▁confidence
▁movement
大会第五十
▁2000.
▁English
dem
▁elected
▁conventions
▁documentation
▁urges
▁Financial
▁Liberia
讨论会
补救
▁decre
irming
发生的
▁Subcomm
▁Territories
▁source
▁extreme
/18
的文件
指定
EM
▁immediate
▁flo
▁政府
日期间
▁occupation
▁Ug
他的
乌克兰
▁University
lier
▁Financing
展开
▁units
▁Spain
xim
额外
▁vac
▁enhanced
▁Research
anish
▁pred
▁road
▁combating
Comm
第七
4)
▁statistics
▁人权
requ
▁Ur
西非
▁Op
三届会议
▁Strategy
.15
公务
的具体
人员和
袭击
ways
▁54
ighb
▁generally
▁job
学习
似乎
inued
▁territories
债权
相信
▁later
迄今
消费
的方案
▁各
▁attacks
▁sustain
▁Intern
▁border
▁duty
就此
66
▁coordinated
▁tru
racts
可行
贩卖
▁trust
甚至
第三十
▁Kuwait
▁house
▁Argentina
atform
IL
的责任
▁temporary
安保
▁limit
PC
assi
▁asked
▁favour
自治
意味着
ifically
▁bu
▁corpor
争端
各地
▁geograph
▁24.
gation
▁alleged
▁opp
.1)
指示
托基金
▁deliber
奥地
▁Letter
▁Northern
/56
和区域
▁emphasized
▁另外
奥地利
▁markets
▁come
受益
puts
▁damage
▁Initi
主席团
全世界
▁LDC
▁Chairperson
▁为此
克罗地亚
开发署
▁cop
的基础上
▁constitution
转移
阿尔及利亚
▁declaration
促请
STA
对此
▁cal
▁Port
▁Records
哪些
起来
ple
经过
South
▁我国
Sec
-1
▁rehabilitation
▁Tw
▁perspective
▁Framework
▁strengthened
一年
一系列
▁emission
▁depend
▁single
颁布
▁expenditure
▁finance
los
▁possibility
▁rapid
ee
eng
问题世界
▁highligh
部门的
▁professional
hood
▁caused
总额
全体会议
▁77
▁causes
工程处
▁advice
段中
▁Those
▁recruitment
nes
生殖
透明度
谴责
▁tools
▁按照
Corr
▁Cap
ilipp
▁qual
▁industrial
kra
▁defined
most
COP
2001)
▁absence
akh
▁dealing
启动
监测和
▁log
▁disabilities
fifth
后勤
▁Cro
与其他
▁construc
▁elabor
▁Paragraph
ives
的基本
▁participated
▁refugee
ourn
▁dang
ground
▁ability
ying
▁launched
▁minimum
遭到
▁Vice
▁presid
licit
五届会议
▁constitute
显然
团结
最低
法令
南部
▁obstac
有利于
荒漠
...
▁prol
hest
制造
▁urged
暴力行为
为止
eals
▁face
的工作人员
▁“(
▁leading
titud
▁Indigenous
AEA
▁payment
一切形式
试验
▁25.
ague
▁fourth
实地
argets
伤害
▁skills
fourth
▁guarantee
▁Moroc
信任
飞机
▁ir
▁threats
▁component
完整
工发组织
▁beginning
▁Parliament
▁48
通信技术
月在
有组织犯罪
私人
/10
itions
▁报告
▁efficient
▁described
▁But
有人
htm
▁Switzerland
补编第
▁三
ie
▁compris
更多的
HCHR
▁shared
▁`
ison
▁extended
arity
玻利
几个
调动
▁第三
刑法
ick
伊斯兰共和国
actions
▁Colombia
社会发展
▁26.
▁鼓励
emic
正式记录
议题
根本
▁Experts
71
马来
voire
▁targets
用途
▁Az
▁Chile
▁Ethiopia
▁old
▁Obs
强迫
在国际
依然
高度
作出了
实际上
的方法
数目
onstruction
Ivoire
▁对于
最大
▁reintegration
▁advisory
▁conform
核可
▁pros
rep
▁Nigeria
小岛屿
ands
SP
▁agricultural
增加了
▁Coordin
/8
elf
rid
投入
oted
马来西亚
前南斯拉夫
respon
未经
阿塞
▁forty
▁consent
赋予
监督厅
1993
▁super
▁decl
并向
six
肯尼亚
发了
▁committee
居住
加沙
拜疆
被告
ointed
阿塞拜疆
族裔
▁participating
政府的
▁across
贷款
▁cho
▁determine
oler
outhern
atute
▁bar
-2011
reating
▁followed
ôte
▁reviewed
▁represented
tained
更为
任期
普通
oto
istics
udge
▁imposed
▁workshops
http
▁2007.
分摊
冲突后
妇女在
AD
▁Fac
atest
▁4,
▁operating
执行主任
孟加拉
bo
▁Uganda
比利
广泛的
”;
▁extend
▁medium
很大
重返
▁max
问责
▁Refuge
有的
委员会的报告
▁Adoption
进口
▁Gender
难民署
▁Training
情况的
▁namely
监狱
▁recognition
▁Western
▁registration
ental
▁judge
减贫
技术和
▁Fam
探讨
▁susp
民国
▁solutions
▁despite
▁determined
avi
▁39
清楚
过境
▁Internet
影响的
▁27.
▁Ukra
▁types
▁separate
TO
unity
▁inclusion
yanmar
▁Turk
八届会议
▁Gaza
形成
▁compar
erve
法规
lying
ximately
合并
▁Med
▁fig
对这些
▁cause
▁placed
oon
(2000
信托基金
▁特别报告员
塞尔维亚
▁near
防治
▁engaged
》、《
▁increasingly
▁必须
斗争
大韩
▁Drugs
▁subsequent
▁Croati
ception
▁organs
/54
谅解
▁Humanitarian
秘鲁
▁dou
保护和
▁bur
巩固
▁Statis
▁trial
airo
滥用
▁500
gest
审评
▁Côte
差距
abil
安全理事会主席
▁island
/58
▁leave
ta
▁lib
-2003
联合国的
▁degra
▁radi
▁Philipp
出的
den
联合国各
▁arrest
▁specifically
▁reconciliation
▁Enc
usal
▁reducing
▁clos
▁wid
▁datab
RC
▁gre
减轻
▁Ben
▁jus
负担
会议和
▁average
被占领
所作的
tically
inding
▁Technology
▁chapter
第二次
64
逮捕
▁emphasis
干预
(2
▁headquarters
▁companies
▁longer
危地
宗旨
rat
ufact
▁emerging
-10
iving
危地马拉
▁norms
▁shown
该区域
▁estimates
/2005/
▁resid
格鲁
▁solid
工资
▁Sweden
▁dev
▁lives
▁eliminate
人权的
无核武器
的一切
asters
▁57
▁organizational
▁Police
朝鲜
continued
▁Ken
▁Pri
经常预算
▁reservations
代理
旅游
除其他
比利时
iles
▁Alg
▁industry
四届会议
芬兰
Secret
▁Mod
▁lar
▁accompl
▁always
▁contains
▁half
▁depart
定于
证书
――
▁authorized
▁contributed
在于
bi
sy
吉亚
文本
▁Subcommittee
几乎
mark
大韩民国
enders
道路
▁category
基本自由
cide
lavia
▁LDCs
atem
▁enjoyment
灵活
luding
▁Consid
erbai
▁Ministers
tivity
▁"
erbaijan
▁Document
的战略
▁options
可能性
lades
▁Cost
▁accep
联合会
▁regul
▁IV
▁highest
WA
▁outcomes
▁senior
▁ratification
储存
格鲁吉亚
▁Myanmar
罗马尼亚
cer
▁percent
mb
▁Te
Commission
伊朗伊斯兰共和国
六届会议
▁Georg
emination
爆炸
的环境
妨碍
▁fo
逐步
DG
条规定
发言者
预测
和国家
▁Yugoslavia
conflict
▁protocol
取消
▁Prof
修正案
教科
白俄罗斯
▁internally
尼斯
▁representation
▁announ
▁Noting
的办法
/56/
付款
和非
特里亚
▁elimination
12)
▁relative
▁mutual
▁planned
在执行
▁competition
尼泊
▁intell
人道主义援助
sixth
尼泊尔
▁panel
▁North
▁Many
设立一个
▁collection
▁49
毁灭
环境署
gment
和加强
沙特
列颠
paragraph
tified
▁http
非正式协商
▁Bas
▁takes
1999)
▁Calls
听取
▁Partnership
termination
治理
分享
今年
▁endorsed
CD
▁remaining
▁Gre
父母
特派团的
apter
▁forced
提高妇女地位
▁personal
hic
▁Inc
aysia
ladesh
成就
高专
出了
▁flex
▁supports
葡萄
述了
▁too
▁likely
不同的
▁compared
▁Governing
销售
▁seen
津贴
可能会
▁28.
惩罚
一道
的会议
▁35
▁Morocco
泰国
gu
with
判例
的关于
▁Guid
委员会和
并为
更新
▁recognize
▁integrity
厄立
▁safe
以后
阻碍
▁attend
▁当
▁scale
ranted
▁San
▁同上
弹药
厄立特里亚
注重
wise
▁money
▁populations
志愿
▁reduced
▁site
▁series
高专办
约旦
高兴
孟加拉国
IOS
废物
和加勒比
▁resulted
不列颠
▁Rule
iring
丹麦
融资
▁Ukraine
oration
▁applications
▁defence
人居
OR
rable
人在
▁Deputy
▁决议草案
资本
葡萄牙
▁Trust
讨论了
▁Population
唯一
▁EU
▁OHCHR
comp
▁Internal
▁2009,
/28
现实
▁times
▁Forms
jud
会计
兴趣
▁election
▁racism
▁2006.
国际和平与安全
口头
基地
(2004)
▁realization
部长级
▁Respon
Sub
endum
▁34
非洲国家
副主席
ulg
儿童和
进步
审理
▁建议
▁reconstruction
▁Provision
ables
1991
▁Officer
第六十
态度
意愿
▁neighb
taining
▁expenditures
所设
随着
olerance
大部分
估计数
调解
权利的
▁delivered
▁Azerbaijan
/19
▁trends
依赖
产权
▁Croatia
6)
报表
提案国
ck
单独
▁round
公布
1992
▁advis
破产
▁Brit
▁ten
▁responses
和安全
▁admin
igration
▁Questions
的不
生态
▁structures
▁Peru
▁observers
▁Erit
▁setting
▁chang
▁thirty
ircraft
▁speakers
▁appointed
▁fost
结合
▁holding
▁1994
即使
▁同样
▁affairs
在此
提供援助
措施的
▁week
确立
▁请秘书长
▁Encoura
住区
DAW
▁Preparatory
▁eradication
▁47
死刑
▁sovereignty
波兰
▁Status
卫星
▁risks
▁substantial
▁Independ
的资金
▁Year
▁indicate
交换
▁Eff
▁我们认为
这些国家
na
残疾人
▁Britain
科技
东道
fare
Secretary
养恤
▁61
哈拉
acement
之下
中非
融入
副秘书长
行政和预算
▁Guatem
▁socio
▁Developing
▁29.
主动
人民的
▁interpretation
ennial
营养
aces
▁home
▁tasks
inc
▁mainstreaming
▁IAEA
▁Austria
尽快
▁accounts
▁empower
▁commissions
▁deploy
▁preventing
▁migration
美尼亚
预防犯罪和
促使
北爱尔兰
▁written
亚美尼亚
irth
正常
300
AO
武器的
发起
unicip
▁加强
▁corruption
▁oil
▁咨询委员会
上文第
▁COP
▁territorial
▁respectively
▁strongly
▁offer
建筑
业绩
▁completion
▁supplement
faction
▁advant
潜在
▁Staff
新闻部
▁Decade
▁38
因而
Al
▁gain
▁Kenya
ins
▁exec
ailand
哥拉
失业
irit
感染
分庭
发基金
▁outstanding
.9/
安哥拉
▁accepted
涵盖
epal
gium
▁der
▁influ
不扩散条约
可靠
在本
ophob
icro
SB
核裁军
ordan
得以
定居
▁所有
一体
▁affect
所做
▁diver
捐助者
蒙特
▁equitable
vic
荒漠化
▁seem
▁vehic
克共和国
和方案
复员
职等
▁centre
▁marine
层面
▁这项
▁reforms
determination
▁arising
▁subsidiary
unis
▁har
表达
▁导
法案
▁Chapter
▁Prosecutor
人士
▁Viol
sitive
item
▁known
▁requirement
atter
以法
履行其
▁creating
▁grounds
▁fields
自决
▁2003.
itoring
年底
▁gross
▁findings
找到
▁Vol
大不列颠
▁constra
▁competent
▁Scientific
▁Food
▁secure
是对
不到
突尼斯
将会
包含
▁candidates
提出报告
▁Fourth
▁Def
▁45
规约
的关键
▁33
▁委员会建议
危害
采取的行动
▁functioning
▁UNMI
的人权
▁sharing
值得
▁never
失踪
▁第一
▁evalu
▁Promotion
/2007
国际人道主义法
▁aircraft
家庭暴力
▁sea
▁Ser
▁mainly
和不
▁agg
limin
▁side
hers
分类
雇员
▁Malaysia
▁和
▁ord
▁highlighted
▁cyc
ody
▁Saudi
▁offences
澄清
▁Saf
oring
认真
▁附件
国际人权
▁manufact
▁miti
手册
DI
▁actual
使用的
▁intention
▁perpetr
▁(1)
▁31.
武装部队
以及其他
▁Portug
▁amended
▁vital
转型
▁proportion
相应
arus
▁contracts
▁owing
面前
▁encouraging
▁30.
▁Philippines
▁正如
▁Bangladesh
▁37
▁Principles
类别
签名
▁Audit
大不列颠及
取决
ndering
▁Refugees
▁lessons
▁When
▁mort
▁contact
▁fuel
极为
所以
▁condem
▁incorporated
owers
两项
航空
向委员会
asures
▁许多
▁Algeria
/2003
▁Control
▁wishes
▁dissemination
取决于
▁aware
商定的
liminary
与合作
▁(2000
大不列颠及北爱尔兰
年人
▁approximately
sych
HRC
▁Den
▁firm
▁values
▁seven
▁lower
环境规划署
建议的
▁Prime
▁engage
▁5,
多尔
hol
▁embar
▁existence
可在
ESCO
▁Romania
▁immediately
▁OIOS
教科文
▁categories
委内
este
的前
▁Bah
▁listed
石油
▁networks
电话
瑞拉
▁constructive
tle
▁Mad
▁其
anz
▁preparatory
的数据
▁base
▁Initiative
▁subprogramme
备选
的条件
委内瑞拉
▁Notes
▁availability
除了
灭绝
▁32.
▁direc
▁components
角度
▁acknowled
versity
▁sustained
▁mal
▁test
▁Guatemala
公务员
▁(2)
▁otherwise
信息技术
▁valid
▁reproductive
▁failure
▁Thailand
▁diplomatic
▁2001.
主要是
▁published
▁element
ION
▁Finally
AN
彻底
▁spirit
处罚
毁灭性
zech
▁unless
▁survey
强烈
攸关
▁students
▁floor
▁dim
▁thematic
▁sy
侵犯人权
▁同时
以往
emor
uled
拉丁美洲和加勒比
现有的
即将
创新
▁amendments
▁Nepal
Signed
▁considerable
istent
共体
的审议
问题上
▁comply
▁conformity
oz
▁experiences
▁satisfaction
▁interim
oli
resses
▁earlier
职务
▁raise
▁room
惯例
斯达
了关于
并非
▁Armen
外交部长
▁insurance
▁300
▁considering
▁sound
行政和预算问题
摊款
▁diversity
每一
ertification
厄瓜
征聘
开会
名义
▁33.
厄瓜多尔
届会
的程序
▁Sim
▁resolve
▁analy
教训
CRP
▁cle
之中
▁After
7)
▁proliferation
各区域
▁nations
▁bel
▁lic
放在
iii
▁formulation
密切合作
▁Jordan
▁occasion
▁recorded
所在
并确保
自然资源
arily
ournal
▁appointment
ansion
enophob
希腊
哥斯达
的必要
▁disasters
哥斯达黎
某一
简要
仇外
取得进展
次报告
哥斯达黎加
并对
▁reservation
的讨论
七届会议
人民共和国
了一项
代表给
除其他外
大不列颠及北爱尔兰联合王国
5)
先生阁下
▁pr
实践
的需要
年和
北京
▁Monitoring
撒哈拉
的经验
▁Angol
▁drugs
使得
的全球
▁victim
难以
职权
内罗
▁assessed
▁electoral
ink
▁32
销毁
tiv
▁Finland
发了言
▁Jer
遇到
▁amendment
▁Following
南南
▁interested
ats
法律和
▁Ma
采取的措施
▁determination
▁Kh
的标准
专门机构
ery
专员办事处
▁significantly
旅行
▁pointed
▁dissemin
总理
Is
ert
▁attack
应付
▁Thus
千年宣言
卫生组织
问题和
期待
▁obstacles
ded
▁ratified
enez
武器和轻
内罗毕
ijing
▁sought
ma
建立了
类型
▁Costa
程度上
▁Soci
▁nationality
▁stri
thing
认可
出售
只是
兰卡
eties
信息和通信技术
海关
▁poss
▁Belgium
uador
▁minorities
▁Sever
担保权
▁enabling
HO
战斗
▁considers
斯里
▁Belarus
的费用
ived
深入
▁34.
重返社会
现代
塔尔
ames
举行的第
iling
▁Sur
委员会成员
洗钱
▁36
斯洛伐
ara
▁allowed
初级
▁unit
arc
▁Spanish
受理
▁Serbia
.1.
燃料
差异
▁Resources
ambia
▁Consult
▁Out
开支
条草案
▁Eritrea
政治权利
▁granted
名额
款项
方面发挥
▁resident
必须在
▁本报告
的区域
另外
▁Ra
utions
cri
ressive
▁]
ece
生育
▁correspon
▁Several
还将
▁1998,
▁briefing
▁Sea
enezuel
敏感
▁content
▁speaking
urrent
▁expansion
▁facing
中有
的进展
▁mine
▁CD
Leste
tify
vency
沙特阿拉伯
庇护
重要的是
Chair
▁secured
人权和基本自由
ME
▁identification
和有关
ONU
萨尔
参考
方向
候选人
▁concluding
▁meaning
反恐怖主义
这些问题
OPS
▁La
我国代表团
ask
▁Tunis
▁transparent
药品
那么
▁transactions
下文
官方发展援助
▁faced
96
▁household
▁ownership
AL
utri
斯里兰卡
柬埔
柬埔寨
大规模毁灭性
/23
▁systematic
经营
▁Agric
婚姻
free
和促进
▁intensi
这两个
协商一致
▁Beijing
▁向
阿拉伯叙利亚
▁秘书长关于
▁35.
▁Rica
▁entered
十一
isc
▁Czech
容易
▁learned
死亡率
▁NPT
eline
vail
▁flows
▁Georgia
▁settlements
gned
olvency
vak
促进和保护
亚太
ocide
现金
设法
▁2006-2007
加尔
情形
▁outer
三年
细则
▁direction
▁vill
▁turn
▁termin
▁maintaining
ship
渔业
arents
常规
不容忍
▁facilitating
/11
▁expect
▁marriage
▁agriculture
信仰
正规
成绩
▁commod
▁zone
▁targeted
备忘
证实
附加
/1999
▁Corr
▁invent
▁whom
▁mother
▁conting
▁courses
匈牙
▁statistical
▁modern
不再
备忘录
的目的
usalem
匈牙利
▁wor
▁option
tific
▁除了
ha
▁mor
知识产权
▁added
将是
▁Energy
lease
▁webs
eighth
95
所述期间
驱逐
▁unilateral
回应
▁emissions
事先
▁Hoc
2-
▁Particip
▁signature
arco
rig
erted
不可能
airobi
▁Small
人类住区
human
目前的
▁haz
theless
捷克共和国
向大会
gency
▁以色列
预防犯罪和刑事司法
▁sanitation
事实上
▁Camb
▁presentation
小岛屿发展中国家
终止
高等
的范围
国际法院
世贸
号决议中
▁Another
海洋法
另一个
▁geographical
求斯
▁theme
小武器和轻
ectual
▁records
基础上
▁almost
▁Venezuel
▁Set
毛里求斯
相比
最佳做法
▁Iraqi
enses
▁topic
克服
seventh
▁Budgetary
卖淫
贸易法
▁migrants
摘要
的世界
的有效
▁Their
my
ere
经济和
▁Lank
▁transit
指挥
利益攸关
enefic
的那样
▁Move
阿拉伯叙利亚共和国
▁acce
大陆
▁Congress
▁produced
ka
▁Lebanese
并没有
▁highly
▁keep
SC
▁linked
化和
▁science
▁51
▁original
衡量
▁pled
▁heard
▁Model
通讯
▁frequ
aundering
▁web
▁我们还
▁punishment
不论
▁convic
▁--
▁quan
▁42
▁observed
加坡
青少年
ican
▁syn
然后
▁margin
耶路
law
限于
的管理
(2005
▁governing
▁remo
▁Family
▁Ecuador
▁deter
▁budgetary
▁thereby
obilization
监察
▁有关
▁pric
▁36.
有义务
教科文组织
▁factor
撒冷
ened
除非
▁accounting
解放
直接投资
科学和技术
耶路撒冷
▁strict
存在的
mentioned
这次
利比亚
▁Jerusalem
ula
▁unem
2006-2007
小型
仍然是
▁exceed
pre
而是
乌拉圭
▁UNIF
设立了
期望
缔结
的研究
▁AIDS
▁Issu
▁registered
▁Recognizing
▁这是
▁latter
▁Gh
riminatory
▁enterprises
确实
▁preparing
▁distin
新加坡
▁extensive
▁undermin
原因是
并鼓励
SA
unte
京都
mon
咨询意见
▁Nairobi
▁believes
极端
▁四
年代
▁liability
▁matern
状态
▁Poland
▁disapp
▁envis
▁x
▁assign
严重的
用的
ounted
改为
和在
哈萨
推广
isition
▁Welcomes
命令
▁undertaking
put
根据第
▁say
▁rise
▁entity
年至
▁44
▁Angola
▁Kyoto
▁attrib
军备
事态
ste
▁played
▁Its
▁histor
▁ILO
▁allocation
发布
▁preliminary
**
▁pp
▁46
▁birth
▁containing
▁type
达成的
儿童权利公约
巨大
▁severe
尊严
ruct
▁contributing
牙买
得到了
引渡
获得通过
atell
▁fifth
”)
▁dign
▁benefic
Ar
▁impunity
400
牙买加
▁Peacebuilding
ict
▁deg
▁Hung
auriti
和对
产出
薪金
示范法
国防
geting
▁非洲
▁inspec
▁updated
▁grave
▁legitimate
桑尼亚
enophobia
▁37.
▁drafting
▁2008.
lines
▁funded
▁coverage
▁introduction
联合国在
▁56
▁Decision
坚持
隔离
坦桑尼亚
▁Despite
▁Br
▁Our
年在
▁Any
▁Lanka
▁municip
▁visits
▁Venezuela
要素
▁allocated
审计委员会
agency
定期报告
▁identifying
秩序
▁Regulations
▁safeguards
哈萨克斯坦
▁reaffirmed
▁53
▁(19
了对
豁免
▁Sri
▁Power
信贷
▁pursue
88
600
▁offered
▁Ob
▁deliberations
大大
重要作用
问题特别报告员
oles
五年
用户
▁parents
▁teams
▁第五十
▁Therefore
ises
▁initiated
设立的
▁Kaz
▁38.
▁seeking
设想
理事会第
军队
▁Project
一定
set
▁Cambod
▁Portugal
/63
专门知识
▁restrictions
▁pregn
▁launch
▁investigations
enh
人人
ean
▁Sup
▁secondary
▁century
MO
▁executive
它们的
议事规则第
例子
多的
▁Sing
utrition
体现
▁why
人权事务高级专员办事处
▁database
拨款
▁Of
提供支助
auritius
▁cong
▁Field
▁执行
债权人
▁belong
marily
:1
atar
越南
推迟
的内容
年度报告
▁hoped
▁waste
tition
▁Statute
并请
目前正在
▁tes
▁stock
viation
正义
的协调
清洁
▁CE
▁che
解除武装
▁worldwide
▁非
▁amounts
上升
决定草案
▁Inspec
▁expression
▁aims
▁IN
▁adverse
onization
▁previously
▁Taking
▁adaptation
观念
▁fa
性剥削
经社会
▁Common
▁Network
▁Transition
塞内
编号
head
▁suc
▁accused
▁世界
▁Comprehensive
强奸
案例
▁selected
▁deliver
场所
Pro
特点
塞内加尔
后的
概算
aint
▁rev
▁constitutional
ruguay
和协调
▁52
道德
▁Urges
▁委员会注意到
所需的
自然灾害
TS
▁lit
▁Summary
2006)
▁39.
京都议定书
▁diseases
vide
▁award
▁departments
▁ran
▁其中
▁Occ
▁assisting
境内的
强调了
▁pil
经委会
▁截至
▁Denmark
▁innovative
冲突的
计划的
开展的
各会员国
85
有一个
生物多样性
▁70
地理
斯洛文
铭记
▁binding
▁carrying
▁maintained
斯洛文尼亚
供应商
作出决定
移交
▁Arabia
▁examine
imb
▁Barb
维持和平行动部
apore
▁primarily
▁oversight
报道
▁hoc
有益
表示关切
▁acceler
▁Tanz
▁bound
▁总
.12
单方面
大幅
▁depri
加利亚
IP
届特别会议
难民专员办事处
恶化
lication
etary
▁Fas
压力
▁tour
▁Excell
拉斯
所规定的
▁mortality
ressing
▁concent
▁197
▁考虑到
▁Slovak
仇外心理
工会
迫切
▁attended
裁军谈判
▁联
▁repe
结盟
筹备委员会
马尔
▁micro
东道国
▁circulated
uable
▁Bi
▁red
tra
▁fel
斯洛伐克
▁belief
▁recalled
:00
没有任何
时至
和实施
ief
▁Movement
▁sentence
▁审查
▁Coordinator
arag
▁43
ata
enegal
与其
▁sm
是根据
少数群体
▁cash
保加利亚
lation
粮农
代表的
此同时
▁run
ventive
▁这个
▁frameworks
祝贺
▁Please
▁Gi
▁40.
一位
排除
▁offence
预算外
▁exped
在这一
/61/
四个
先前
uration
▁peacebuilding
尼加拉
▁Main
尼加拉瓜
规定了
管理局
外勤
▁Ministerial
是由
行政当局
▁Mauritius
▁widely
▁subsequently
INF
培训和
.11
/54/
rateful
bers
▁doub
多年
▁grateful
麻醉
▁它们
萨尔瓦
▁vo
▁coordinate
送交
▁Reaffirming
侧重
istence
▁Peoples
日起
▁ap
aging
akhstan
合作的
▁purch
▁convened
▁Pur
▁depos
terrorism
▁instance
开幕
▁现在
▁achievements
▁ratify
效益
-2001
ET
▁41.
▁Nic
UR
▁reiterated
/13
▁Alban
tivities
所有人
马其
▁heads
▁美国
▁governments
马其顿
打击恐怖主义
教师
基准
环境基金
▁release
▁makes
▁drawn
▁constraints
玻利维亚
eav
▁Salv
▁resumed
所需资源
▁Tanzania
▁tal
pd
影响到
方面所
▁identity
essment
▁sponsors
lav
▁Fri
贸易和发展
积极参与
药物管制
▁payments
pan
▁modalities
经社
▁designated
两名
▁41
歧视公约
(2003
/17
暴力侵害
▁Occup
已在
▁expenses
物品
相对
-6
转递
和政府
面对
内陆
主张
▁mid
面临的
▁places
amer
▁acced
以促进
排雷
istries
/58/
▁principal
发达国家的
aily
▁protected
89
卡塔尔
▁Assistant
▁productive
装备
onial
▁unable
订立
▁affecting
ians
posal
▁background
▁vulnerability
的成员
▁Strategic
▁eight
▁verification
▁radio
用来
▁2009.
实现千年发展目标
本决议
法索
▁decide
▁progra
地球
被视为
▁WTO
应急
突出
▁Land
▁Hungary
加纳
▁psych
补助
▁目
▁observer
▁Strengthen
米尼
政党
▁1999.
多种
金融机构
成员名额
▁Armenia
食物
yer
▁consultative
监禁
萨尔瓦多
收益
▁Maced
▁Sloven
▁Excellency
布基
以及对
▁Platform
atri
第一次
当事方
▁late
▁Salvador
oman
巴勒斯坦领土
▁prices
▁parliament
84
adequ
▁expanded
▁Chemical
▁促进
rolled
▁humanity
▁advocacy
经费的
▁ded
采取一切
reach
▁assigned
工作人员的
▁decent
▁SB
▁controls
南亚
▁Stud
▁allegations
ront
ylum
▁Safety
▁endeav
▁inequ
加快
提交了
正确
▁42.
都有
▁80
的一种
观察团
▁port
▁engagement
发放
补偿
▁seminar
▁societies
▁Indust
▁Uruguay
▁有人
▁sustainability
oming
的技术
证人
效果
Habitat
vinced
▁2004-2005
▁technological
/61
egro
性别观点
潜力
ani
kina
大家
的全面
forced
▁Joh
ousands
▁farm
unction
独立专家
sequently
负有
▁Encourages
会上
▁fire
界定
性别问题
▁UNESCO
多米尼
/15/
▁tele
▁dignity
▁Palestinians
▁nine
▁numerous
▁小组
/2001/
陶宛
.18
限成员名额
▁Task
▁dispute
其他国家
释放
立陶宛
MP
▁Issues
国家一级
继续努力
fully
▁hear
▁Ne
▁bringing
▁suffering
▁Kazakhstan
空缺
▁Pan
成员的
▁400
▁burden
▁minority
▁opening
本届会议
▁chemicals
我要
或有
▁FCCC
宣言和
▁What
人权理事会
新伙伴关系
▁Integ
▁invitation
消除贫穷
▁giving
▁Bulg
▁chair
▁sites
▁cease
确定的
mer
纪念
▁produce
学院
▁website
▁Cambodia
▁Most
▁decrease
▁Monten
制定了
▁neighbour
▁Accordingly
▁attempt
纳米
▁dri
▁Faso
▁Greece
▁regulation
审议大会
具备
800
▁1993
▁Oversight
▁focal
▁losses
周期
当选
▁impacts
▁cycle
ithu
▁From
▁lasting
为其
▁Viet
▁最近
▁differences
声称
世贸组织
▁examination
▁jointly
乍得
项下
/50
ipp
▁UNODC
▁regulatory
秘书长的报告
纳法索
▁heav
▁teac
坚决
raf
分区域
国和
▁explan
进程的
经济增长
▁dead
▁Reduc
titude
》;
▁pleased
▁perpetrators
互动
劳动力
▁43.
政策的
care
准确
▁pattern
▁Singapore
混合
▁Stand
公报
近东
▁Forces
月份
ique
紧张
▁欧洲联盟
▁Senegal
▁solidarity
▁specified
▁surve
▁protecting
ocks
流行
▁subparagraph
经济发展
stance
人格
utors
▁learning
▁Universal
需要的
▁Domin
巴尼亚
ns
▁Macedonia
▁VI
%)
heries
▁acquisition
/9
▁Proced
▁congrat
▁history
▁improvements
布基纳法索
购买
arding
▁Expert
和服务
▁mess
/40/
▁Leg
条约的
委员会的工作
杀伤
▁duties
▁occurred
坚定
▁sole
▁mom
▁各国
▁下午
State
▁publications
ón
有时
着手
社会和文化权利
aritime
存在着
ingu
权和
最新
一些国家
▁outlined
▁confirmed
▁though
覆盖
设在
▁44.
akers
▁provin
年轻
▁transmitted
提交给
的相关
个员额
暂停
刑事法院
毫无
提出建议
sc
locked
olivia
▁Supreme
一体化
▁seminars
▁Car
2008-2009
▁Montenegro
rew
只能
▁sixtieth
加速
制度的
ectoral
▁Traffic
illing
▁Slovenia
▁Sixth
▁reviews
▁Red
也不
▁第五
▁(2005
▁willing
开展工作
秘书长的信
任职
▁在此
(2001)
▁revision
免费
预防和
▁intolerance
▁governmental
▁maximum
▁complainant
▁prostitution
▁导言
▁Use
某种
还要
▁Deleg
▁Advis
ova
inese
▁600
民主主义
▁troops
ribunals
▁pack
▁War
▁capabilities
▁mobilization
百分
87
▁Tog
▁insolvency
部分第
mmun
▁star
oks
▁uses
▁2008-2009
let
▁Having
▁committees
何种
▁substances
文明
外国直接投资
▁stip
ONUC
▁left
▁Lithu
▁disputes
▁scheduled
养恤金
▁Obser
losed
推进
▁由
▁retur
重复
整体
那里
iteracy
▁一个
erce
▁Sam
▁90
共有
cean
▁barri
▁empowerment
钻石
/40
▁Jamaica
▁noting
▁profession
两国
之二
bek
限度
▁arri
的共同
iled
ocal
▁receiving
▁demobilization
任意
▁Di
omic
▁soldi
▁文件
主办
以此
世界人权
条约机构
人权高专办
朝鲜民主主义
马其顿共和国
▁Activities
阿尔巴尼亚
▁price
▁contra
▁exports
元首
ulating
▁Statistics
小武器和轻武器
出于
尤其是在
更大
▁Professional
CI
雇主
aps
▁etc
▁Comb
dered
▁45.
▁spread
试图
▁broader
▁6,
UNEP
▁OF
附件二
▁bank
▁Saint
▁Informal
列的
在内
开展了
▁imped
其在
朝鲜民主主义人民共和国
-15
ump
十字
▁(2004
申诉人
ommod
▁weak
▁toler
许可证
rong
▁Ver
▁Eastern
▁Sett
▁mil
对联合国
atically
▁Nicarag
VI
▁inadequ
rect
sement
▁ready
承包
ware
▁acting
遵循
▁Process
▁advantage
联网
短期
emen
▁moment
▁特别
orest
麦隆
该决议
▁percentage
▁eas
附属机构
▁Qatar
▁Chad
部队派遣
喀麦隆
专业人员
▁afford
▁mach
专家小组
▁cat
▁embargo
有机会
内部监督
▁urge
▁Racial
▁numbers
uk
是为了
▁attached
财务报表
ranch
700
▁remar
▁supplies
▁details
非洲发展
规章
▁recognizes
后来
fin
ourg
▁Bulgaria
uven
补贴
RAL
▁accomplish
反映了
▁copy
▁Given
▁Burkina
▁employees
▁consumption
气体
dation
▁prosecution
取代
▁understand
所需经费
▁failed
粮农组织
*,
的定义
▁已
▁coordinating
协同
63-
▁pending
北部
▁认识到
▁preced
▁demonstrated
汇报
greg
amond
▁nation
▁mandated
对待
▁妇女
问责制
▁acceptance
AP
▁Takes
性暴力
▁insu
▁Additional
和多
裁定
▁manif
▁remedies
转交
fire
▁obtained
▁preventive
提名
以便在
包容
▁46.
暂行
的歧视
▁Appro
▁Bolivia
▁consolidated
cive
▁imprison
▁Change
rabudgetary
▁asylum
▁Transitional
目标是
▁invite
程序的
母亲
和环境
▁company
raising
当时
第三次
▁Two
有害
▁acad
olonization
▁inclusive
▁union
ongol
▁relevance
▁Pap
andum
emorandum
周年
▁Contract
▁accompan
▁conver
▁Counter
消除对妇女一切形式
▁Lithuania
▁alle
▁accommod
/15
sels
▁remin
▁Guide
isterial
▁Tunisia
ITA
报告第
提出的建议
▁7,
▁degree
停火
▁63
贸易法委员会
▁guide
▁weeks
▁notice
贝宁
▁biennial
orders
▁dealt
ots
世界各地
▁complaints
大规模毁灭性武器
体育
加剧
处境
▁attain
▁Ghana
政府在
例外
▁examples
人或
▁exem
言论
处决
▁hard
oth
▁links
▁mer
▁migrant
▁Sah
▁intellectual
▁judiciary
交付
条的
▁pilot
▁Society
并未
.1),
▁Abd
▁trading
asc
它的
▁reasonable
少数民族
▁ever
▁little
只要
icial
(19
生活在
▁Recommendation
rd
,2004
Dec
关于在
▁overcome
五个
殖民化
▁经济及社会理事会
Pre
para
受影响
▁located
off
接受的
▁47.
▁Found
▁names
不平等
出生
拖延
93
▁join
▁页
▁hosp
货币基金
lor
纳米比亚
▁regularly
▁ship
好处
tun
作出贡献
▁staffing
被占
马耳
▁Qu
83
关心
(1)
8)
土著民族
驻地
ameroon
▁woman
的理由
侵略
该项
iry
▁hy
▁customs
▁国际社会
被认为
收到了
▁marginal
因特
地位的
ores
▁Conventions
/2007/
收到的
▁vision
英文
发展筹资
▁sale
igence
▁envisaged
将有助于
区域和国际
掌握
▁prompt
信息系统
的结论
▁reflects
▁minim
毒品和犯罪问题办事处
号和第
▁ago
并使
pect
之间的关系
以加强
和支持
毒品和犯罪问题办公室
到了
总数
97
▁object
▁announced
▁regards
▁Committees
▁Day
▁Jud
▁Reports
▁coming
▁guarantees
SO
CRC
che
▁roles
▁Concern
妇女和儿童
specific
管辖权
▁Invites
▁Outer
▁worked
▁penalty
▁campaigns
-2010
适合
▁Yugoslav
Am
事态发展
民事
▁daily
*、
建造
▁withdrawal
▁196
▁race
审查和
▁wrong
▁vir
▁2002.
马耳他
HE
的可能性
cessive
▁UNAM
▁survi
车辆
sile
▁Emphas
▁doing
安置
iently
多个
▁1997,
的暴力
大力
▁joined
有关国家
▁48.
行业
也没有
▁Dist
目标和
反腐败
TC
ival
的机构
▁shel
医院
91
▁biological
.2/
▁preparations
udgets
▁administer
▁hazard
▁reven
▁valuable
雇用
守则
赞赏地注意到
▁Sen
atures
▁Poverty
sen
▁sense
▁Similar
▁Ear
最高法院
▁exclud
的人数
津巴布
▁contrary
红十字
▁condition
津巴布韦
康复
始终
常常
▁directed
▁recip
.13
ibia
▁Planning
hibit
▁reb
的调查
▁destro
▁appeals
lim
▁phen
▁nationals
▁我国代表团
▁prevail
▁focusing
iaison
阻止
▁voting
▁Slovakia
乌兹
有罪
orts
▁wished
并通过
的威胁
eff
乌兹别
许多国家
遗憾的是
▁degradation
▁poll
尔多
间接
92
▁search
提醒
▁segment
▁covering
▁inventory
中心的
▁(2003
跨国有组织犯罪
Ter
Th
riya
和使用
吸引
osystem
▁constitutes
uine
▁posed
▁Where
弱势
问题世界首脑会议
伯利
单一
abled
合作伙伴
委员会的建议
与国际
全权
连续
road
▁Occupied
▁Nicaragua
atellite
▁确保
报告说
▁Torture
▁incidents
▁Contents
联合国系统各
▁Representatives
咨询服务
ony
▁Institution
蒙古
财政资源
讲话
。]
根源
▁conclude
▁advancement
法定
的参与
我们认为
▁budgets
消除对妇女一切形式歧视公约
飞行
条文
的条款
促进发展
▁expresses
An
意识到
icing
9)
前往
路线
首长
提交的报告
▁agency
▁saving
▁corporate
瓦尔
▁吁请
可能的
GC
邻国
▁regret
▁phenomen
entially
▁Turkish
/63/
▁usu
应由
放弃
受害人
▁49.
▁sect
86
acro
▁investments
中非共和国
▁附
照顾
/16
▁1991
地域
已有
load
▁Foundation
▁有些
▁competence
和工作
联合共和国
低于
▁methodology
我们必须
▁examined
永久
安全理事会主席的信
tially
▁Prac
▁elig
增进和保护
zation
森堡
▁division
uses
▁与会者
▁coherence
离开
区的
民众
▁shows
行政和预算问题咨询委员会
力和
▁Measures
________
▁Mul
ift
卢森堡
▁aud
▁subs
人口的
行动纲要
以使
和重返社会
▁Provisional
赞比亚
▁Agriculture
提供资金
因特网
我们在
▁(2004)
▁fed
▁没有
号和
可以在
▁killed
▁unemployment
▁1992
标准和
▁crises
加上
的待遇
能够在
提交报告
Proliferation
▁indeed
▁interventions
▁eradic
拉脱
联刚
▁FAO
志愿人员
违背
批准了
坦桑尼亚联合共和国
▁Climate
ilt
的各个
stein
orient
iversary
管理的
PRST
▁declared
ews
▁50.
个别
ynam
▁calc
abwe
▁instruc
(2000)
▁Stock
▁Guidelines
imbabwe
▁product
快速
巴勒斯坦人
▁except
缺少
▁rape
hiriya
原则和
▁combined
▁impos
比绍
董事
oham
进展情况
行为者
▁nomin
xemb
ga
▁Jamahiriya
的个人
▁represents
▁terrorists
的案件
全面的
交通
弃权
▁programming
也门
▁witnesses
▁soldiers
▁prejud
了一些
▁Mat
▁Tre
ultim
▁tenth
▁extension
rely
▁gaps
▁需要
▁21,
▁Libyan
而不
约翰
/25
tre
▁adjustment
的认识
▁800
▁trib
项目标
拉脱维亚
▁unique
简报
遣队
▁clust
巴黎
▁attemp
欧元
当事人
ITRAL
▁中
▁processing
▁mob
xembourg
辱人格
委员会第
恐怖分子
▁asset
▁coast
人居署
研究和
▁Malta
款的
▁managers
ographic
▁transf
▁dele
▁Armed
企图
审查了
bound
▁serving
▁tit
还应
where
][
国际贸易
▁began
仅仅
uri
▁associations
region
▁liberal
报告和
捐助国
这样的
几年
最初
食品
的缔约国
--
主席的
▁PR
问题国际法庭
▁diamond
该项目
▁arch
概述
▁Invest
自身
被拘留
issau
常会
▁doc
区域的
阿拉伯利比亚
圆桌
随时
pdf
桑比
▁legally
▁stations
▁i
▁sections
▁impar
ourable
常驻联合国代表给
▁xenophobia
▁敦促
不人道
仍在
一般事务人员
程序和
莫桑比
乌兹别克斯坦
男性
阐述
也有
询问
▁camps
▁behavi
是一项
▁welfare
冰岛
事业
▁第六十
的关系
▁devo
显著
偿还
▁Budget
▁Island
▁Cameroon
OL
尽量
查阅
pread
▁tourism
▁62
民众国
▁51.
▁Account
的使用
男女平等
▁bearing
idespread
几内亚比绍
在国家一级
的同时
为期
导弹
登记册
宏观
▁integrate
▁increases
丧失
一方面
ply
▁上午
▁objection
▁limits
哈马
▁Last
▁users
▁至
being
列支
bon
表示欢迎
号决议所设
▁figures
▁Through
▁creditor
scale
▁ultim
oods
巴拉圭
塔吉
小时
▁forums
▁latest
▁Open
小学
ago
是因为
▁Consideration
裁军谈判会议
一词
▁letters
活动和
▁alone
▁insufficient
地带
▁sl
巴拿
咨询机构
▁Corre
▁repeated
巴拿马
该报告
ranc
同上
▁700
▁disch
oa
获悉
世界贸易
莫桑比克
条的规定
(1999)
向联合国
▁选举
▁periods
▁vehicles
alle
特征
▁Adviser
▁raising
▁demands
鼓舞
ouses
aching
▁Advance
我谨
celand
▁manage
▁Reduction
zbek
不利影响
▁Zimbabwe
经合
▁papers
▁MONUC
▁MIN
核武器条约
.1/
▁通过议程
20/
▁grad
▁prisoners
duct
urate
不限成员名额
还在
南南合作
▁Observer
TD
问题工作组
▁charge
▁topics
▁helping
▁enterprise
余额
士登
成效
举办了
▁Military
ED
份报告
文化和
的培训
列支敦
首要
退休
列支敦士登
▁exclusive
▁distributed
▁transferred
议员
出席了
▁abst
学术
战略和
粮食计划署
▁Paris
kh
▁Pursu
gressive
▁Luxembourg
(《
是不
在所有
▁52.
以法语发言
陈述
习惯
删除
广播
▁UNCITRAL
ares
contrib
ECD
riginal
▁ed
ND
关切地注意到
▁deem
提供关于
▁borders
▁Ste
urban
▁Independent
对象
/24
客观
▁prohibited
▁anniversary
▁considerations
▁Auditors
Sect
▁widespread
hel
▁Developed
宝贵
多斯
杀害
▁THE
▁Strengthening
yers
82
更大的
总值
建立信任
认定
发言的
化学武器
一套
年世界
▁Relations
▁reaffirm
ps
灾难
▁sixth
▁command
▁becoming
痛苦
多米尼加
▁Arms
▁Southern
召集
一国
首次
在这些
和平利用
▁Benin
▁try
▁declar
▁genuine
民兵
极其
公民权利和
前南斯拉夫的
uras
充足
相反
准入
▁true
/22
▁Namibia
世界上
武力
▁decides
▁Integrated
1(
▁merc
▁Science
▁foster
吉尔
的原因
▁integral
秘书长的
▁zones
certain
▁mines
▁Legisl
条和第
和中
▁Il
▁Organ
护理
▁Uzbek
▁outputs
▁wider
和程序
▁deployed
▁53.
900
组织在
保健服务
辩护
斯先生
▁powers
终了
未经表决
▁ves
▁functional
.14
▁anticip
去年
图书
和平协定
ozamb
▁clean
▁五
残忍
grading
including
illed
▁association
最好
naire
space
▁devoted
▁seriously
段所述
的决议
该地区
▁structural
cipl
▁Mongol
▁pension
▁suffered
充分的
▁Team
促成
▁Latvia
委员会建议
aguay
进一步加强
爱沙
的成果
ifications
ira
爱沙尼亚
▁inadequate
▁want
▁classi
边境
所载的
▁gas
多哈
▁tack
entials
进行合作
▁Paraguay
没收
消耗
必要措施
times
必要时
Bissau
的人员
将对
RWA
▁目录
▁mental
但在
depend
▁selection
出现的
的一般性
▁normal
cast
有关决议
▁fishing
▁partner
▁Assessment
cia
发表的
▁dynam
阐明
感到关切
vince
▁Right
▁Mali
ibid
商务
索赔人
▁quick
▁Against
▁Sixty
排放量
方的
uds
协调一致
▁incur
违反了
▁decade
▁extremely
▁abol
rations
▁cul
▁warning
这种情况
届会议上
▁Establ
▁outs
▁按
为执行
/2006
▁要
oha
区别
earing
▁transnational
差别
建设性
▁Iceland
▁manifest
XV
ek
法行为
▁teachers
overning
有机
▁Yemen
紧迫
和人权
来的
▁Pursuant
▁Terrorism
DF
签订
organiz
形势
级别
预警
自治领土
▁adopting
参照
rength
▁update
hibition
▁disability
酋长
▁banks
tenstein
前南斯拉夫的马其顿共和国
advant
经历
贩运人口
▁fall
▁equival
方面的作用
▁exception
越来越多
▁imprisonment
▁全球
其工作
并与
▁variety
安全的
▁Zambia
联塞
tis
阿拉伯国家
▁explicit
▁第四
▁与此同时
和教育
使我们
▁stable
▁largely
94
协调和
echtenstein
▁size
▁Operation
▁substance
生存
农村地区
▁summit
ciplinary
业务活动
发射
▁feas
最不发达国家的
▁Never
▁lines
是一种
的实施
▁representing
经费的筹措
roduce
妇发基金
▁Finance
▁54.
▁Environmental
▁IP
▁Acting
▁Advancement
分散
电视
开发银行
ozambique
sell
▁ecosystem
▁proceeds
▁确认
不符合
有能力
的危险
各代表团
和相关
▁Organized
不良
签字
寻找
缔约国在
▁aggression
▁Pen
▁started
日关于
▁Person
▁conservation
渠道
的非
指数
称为
罪犯
放射
都拉斯
万人
ortion
下述
▁hos
▁extrabudgetary
▁今天
rip
继承
阿拉伯利比亚民众国
为实现
CAP
难民事务高级专员
ino
海事
▁influence
或在
▁strength
作为一个
并加强
▁occupying
月至
要求的
▁accession
▁tel
▁transform
▁Bh
▁在第
一直在
尽早
实施的
▁WHO
洪都拉斯
▁detain
比率
未成
所谓
行事
▁faith
▁utilization
巴林
▁unf
▁8,
▁大会第
▁break
温室
▁Corrections
的组织
▁ideas
保护平民
▁应当
▁served
将由
就会
▁贸发会议
部队派遣国
照料
举行会议
quiry
教学
文件的
/7
sw
▁stop
必需
每天
的贡献
/57
第一章
▁Panama
▁word
确定了
▁changing
▁Moham
并就
独特
疟疾
▁55.
izations
▁Resource
文职
德里
在一起
传染
▁consolidation
削减
ults
加斯
losure
支援
生殖健康
尔多瓦
每一个
▁channel
任何其他
icated
▁counsel
▁disadvant
▁(1);
这两
推行
遣返
abilization
▁Nevertheless
时限
▁composition
▁Mus
刑事法庭
及太平洋
▁balanced
▁fraud
内部监督事务厅
▁explained
后者
禁止酷刑
▁(“
水和
独立的
AU
MF
和文化
国内法
▁pressure
▁deterior
discrimination
▁Sales
▁Defence
评注
▁largest
提交一份
▁helped
错误
book
▁highlight
▁questionnaire
Re
▁slow
▁adoles
▁relatively
riend
▁Rome
quid
▁equally
ense
杀伤人员
▁formulated
contributing
安理会成员
▁disease
的实际
▁repatri
ajik
▁complaint
ados
人力资源管理
face
▁boys
................
▁注
产生了
Terrorism
▁subregion
▁version
产妇
▁conducting
serv
▁writing
▁Violence
废除
tes
▁Albania
ocational
▁Mongolia
成功地
▁Each
塔吉克斯坦
防止和
协调委员会
保存
特遣队
▁acknowledged
有力的
▁experienced
同等
.20
▁rose
▁Trafficking
FP
巴巴
/26
,2000
用品
ena
绝对
FCCC
杀伤人员地雷
▁Welcoming
unger
▁Reaffirms
全力
150
▁Hond
▁keeping
▁promoted
老龄
awi
生产和
▁became
ications
▁回顾其
▁determining
ura
争议
责任的
联刚特派团
▁location
▁remote
▁convening
isation
种植
▁flexibility
▁accomplishments
入学
▁Uzbekistan
▁administering
摩尔多瓦
ritish
▁Dj
事故
序言
公民权利和政治权利
变得
见第
结束后
▁savings
在过去
敌对
angible
▁barriers
该决议草案
▁subjected
▁Liechtenstein
客户
愿望
▁organize
ull
▁Chinese
高的
装置
温室气体
常驻联合国代表团
▁Mozambique
▁curric
▁employed
人为
书记
图书馆
imes
制作
谈会
▁Least
▁memorandum
组成的
umbered
▁adequately
亚洲及太平洋
encing
▁arbitrary
▁transfers
领取
Self
和政治
▁Indeed
动力
▁explain
▁older
▁这样
▁reality
招募
的需求
arities
▁intervention
Part
,2005
▁opened
▁reiterates
岁以下
提供服务
阿拉伯联合
绑架
自动
▁VII
▁Protocols
oriented
▁中国
atch
▁genocide
▁neighbouring
不扩散核武器条约
▁manufacture
mail
valuation
rees
优惠
定为
▁stream
▁Doha
▁56.
▁ministerial
▁条
草稿
基金的
▁Settlements
▁1996,
▁airspace
更多地
rey
▁区域
▁breach
和可
童工
指导方针
缔约方大会
▁indirect
▁首先
▁更正
并强调
自我
继续审议
▁certific
▁discriminatory
deploy
▁Dominican
▁recognizing
gun
▁Statements
全权证书
▁intensify
▁99
▁法律
主席先生
efore
▁gave
▁儿童基金会
物资
reto
▁我们希望
塔利
对付
带来的
▁pertaining
条款草案
▁Tajik
重点是
▁decline
多米尼加共和国
Governing
▁fisheries
▁Recommendations
需要在
加紧
和行政
▁Presid
▁destroy
席位
排斥
的进程
▁ICC
秘书长特别代表
.17
提请注意
aled
ography
将为
施加
饥饿
▁bl
▁away
▁imper
imbur
CEDAW
具体的
贸易和
▁Emir
▁convinced
.25
的请求
▁57.
▁Mold
正当
▁disposal
▁homes
也在
▁方案
▁Statement
和儿童
sign
▁requiring
号决议和
▁tolerance
▁日本
cription
一部分
▁speed
▁commend
之间的合作
:《
十二
▁predict
▁southern
▁小组委员会
▁requesting
rah
▁加拿大
▁think
▁Equality
公开会议
▁regimes
▁linkages
▁negotiation
orm
两次
缓解
巴巴多斯
区分
而在
机制的
leventh
▁appears
他们在
的生活
▁indicates
▁审议
继续在
问题是
▁British
▁acceptable
科索沃特派团
▁behaviour
倡导
吉尔吉
▁explore
▁Employment
▁jobs
▁Documentation
与和平
▁Interim
▁uns
▁fix
伊斯兰会议
满意地注意到
动员
▁equity
▁progressive
kers
▁以
现已
部的
工作计划
该委员会
/2009
无核武器区
▁violated
骚扰
▁curren
▁format
定居点
三分
▁prin
▁consum
经济体
mises
软件
遗产
分配给
行动者
▁advanced
很少
就业机会
生态系统
▁Inte
并应
.19
和法律
政府间组织
lihood
▁Mechan
▁continuous
董事会
income
▁9,
减贫战略
▁dup
arcotic
▁machin
sharing
旅费
▁arg
▁unders
rigendum
▁replace
1373
▁Mond
▁Appeals
提供有关
使之
/12
uvenile
种族灭绝
▁sides
塔利班
▁Coll
▁signing
都必须
iodiversity
第二个
▁assisted
非洲的
▁1995,
▁Honduras
会费
▁dangerous
▁lost
President
根据其
▁operate
和监测
▁FDI
大会正式记录
▁Emerg
格式
rene
▁欧洲
习俗
世界人权宣言
重要性
色情
▁conj
▁workpl
工作地点
aliban
▁UNRWA
目标的
听取了
▁Mig
并不是
rugg
▁UNOPS
▁Transport
(2007
利益攸关方
▁Treatment
IG
列出
和各
有关的问题
士兵
所得
融合
▁过去
对这一
▁Cross
▁adjustments
孩子
可持续的
公共部门
▁larger
功能
增编
kind
▁believed
▁只有
cession
▁miss
救济工程处
时间表
囚犯
pol
至关重要的
acroeconomic
▁58.
▁happ
普及
▁Moldova
▁GEF
▁votes
▁Friday
▁displacement
退化
▁closed
国别
(2)
的预算
▁cod
▁coherent
▁confirm
▁transmitting
禁运
posed
▁interaction
首脑会议的
▁fulfilment
的话
▁trained
繁荣
关税
inter
▁suggestions
该公约
▁MDG
常规武器
▁charges
领空
els
▁immun
见附件
▁duration
po
监管
共和国总统
▁invites
▁Election
养护
迄今为止
表示关注
▁stresses
▁continent
▁Communications
不妨
的最新
▁reaching
▁introduce
感兴趣
▁1373
▁exclusion
纠正
ifying
分段
或有辱人格
怀孕
▁在这一
▁Annual
再生
速度
▁Educational
边缘
▁Pun
▁dism
▁Hol
充分执行
阿布
提供资料
ita
下放
顺利
▁Procedure
▁reinforce
填补
工作中
提到的
明确的
大会第二十
减免
包括通过
▁(2001
zed
▁facts
看来
咨商
fortun
国际刑事法院
非自治领土
▁investigate
81
否则
用以
▁ali
▁Among
▁federal
此项
所有会员国
阿拉伯联合酋长
▁projected
行政首长
书记官
▁Monday
gen
▁optim
▁strugg
多哥
/14
▁map
▁distinction
怀疑
▁14,
▁reviewing
▁explanation
▁prohibition
▁秘书长的报告
IR
aired
▁thereon
▁ministries
▁demonstrate
missible
▁outreach
▁belonging
1980
ecomm
▁Atomic
▁UNIFEM
▁forests
▁Emirates
沿海
usp
总干事
cribed
▁released
转变
▁(3)
司长
得出
民警
▁900
近东救济工程处
▁Estonia
▁livelihood
▁entrust
吉尔吉斯
▁decentral
实质性会议
▁(212)
应以
▁ES
和政策
将来
▁constituted
的目的是
▁reliable
汇率
申明
▁经
捐助方
▁List
向其
rgy
▁constant
▁tot
的机制
▁bear
联合国开发计划署
/2006/
▁Contrib
▁drew
ancies
▁League
▁新
eared
了一
▁sometimes
▁Similarly
▁transportation
rec
rgyz
▁Water
▁accountable
▁city
▁Transnational
▁可
南方
各位
▁stages
▁Tajikistan
这里
会期间
▁successfully
电信
援助团
自愿捐款
核武器国家
▁fighting
15.
不罚
的第三
▁Bahrain
他在
.105/
iques
维和行动
意图
机场
▁commence
英国
▁mitigation
来看
oty
的报告中
谈到
比额
的最佳
▁choice
和性
▁59.
▁liber
格林
打击跨国有组织犯罪
职权范围
强调指出
积极的
依靠
▁maternal
核定
▁enough
隔离墙
进度
▁Anti
▁virt
▁everyone
burg
统计数据
▁Niger
告知
非政府组织和
委员会关于
▁commodity
因为它
▁rational
公认
援引
资料来源
▁Togo
▁Taliban
▁reimbur
背景下
▁lists
西岸
种种
▁reve
5%
▁2010-2011
▁Ah
▁covers
会晤
▁Based
工作者
arms
▁prohibit
其对
所作的努力
▁Vic
▁emphasize
border
人权问题
区域组织
▁hazardous
作物
净额
机构在
.2,
▁60.
宏观经济
▁works
▁premises
▁art
计算机
战略计划
侧重于
的支助
▁volume
不久
小额
▁speaker
回答
及其对
造成了
▁class
发展权
▁refers
▁renewed
判处
▁Heads
▁monit
▁procedural
和有
▁applies
CL
▁seeks
pid
ditionally
▁transaction
grammes
mmunition
海上
▁defic
▁reiterate
首席
污染物
▁$1,
就必须
▁interview
品编号
▁conjunction
消极
购置
外空
担心
▁forthcoming
国际会议
▁redeploy
干旱
第八
CH
versi
绩效
标准的
▁reflecting
▁UNMIK
▁insec
视察
▁continuation
▁message
▁委员会建议缔约国
着重指出
▁residence
扩展
水资源
▁parent
▁Procurement
摩纳
unteers
▁presidency
▁simply
摩纳哥
编辑
份额
▁dro
missibility
▁cities
,1
和黑山
▁1980
跨界
ength
▁Roma
的时候
▁movements
/2003/
▁overview
▁liberalization
oday
近年来
▁reti
▁它还
缔约国会议
包括对
▁Gab
▁visited
入侵
的教育
▁entail
▁accessible
▁conventional
▁offers
解决冲突
生产总值
配偶
▁came
lining
/250
▁Consultative
角色
▁bench
▁financed
林业
百分比
ensions
非法贩运
家属
我的
heme
▁Impro
会谈
▁mag
▁arrangement
了在
▁protocols
3(
alys
▁assessing
▁confidenti
down
▁thousands
▁corresponding
ja
次全体会议
也许
▁evol
laundering
研所
大会和
▁inputs
▁quanti
纪律
维持和平特派团
▁oral
▁$1
▁Kyrgyz
将使
▁autom
▁formed
▁analytical
照会
▁submissions
▁male
▁grants
强化
一旦
ead
足够的
▁stim
▁claimant
总结
/5/
▁Gen
▁figure
▁customary
的一个重要
▁scheme
▁sensitive
处置
清洁发展
▁greatly
的最后
▁condu
失去
acted
▁disag
2004-2005
COM
▁managed
▁charged
物体
▁而且
▁notification
▁61.
forcing
▁presidential
▁dedicated
法和
▁satellite
▁呼吁
的人口
▁unac
提供技术援助
应收
PV
rem
加沙地带
▁declarations
IU
▁transitional
签署了
不人道或有辱人格
▁mobilize
▁resolved
▁ended
▁decades
▁pursued
▁0.
rient
加强联合国
▁Facility
穆斯
本公约
年为
▁flag
医生
▁Both
忽视
研究报告
▁Sir
的核心
▁idea
aco
mad
erican
▁reply
▁hunger
瓦纳
提供的资料
该组织
的可
肯定
规划和
▁enact
▁Reiter
▁composed
一方
能否
宣言和行动纲领
▁Organizations
配合
▁Not
马达
lan
▁harass
▁properly
▁extradition
aving
以及联合国
拟议方案预算
▁至于
外交部
的后续行动
▁Habitat
▁phenomenon
▁sets
欺诈
count
▁finding
▁大
有担保
可持续性
reprene
2(
▁arrested
有罪不罚
▁thereto
▁multiple
▁incorporate
,2003
进行审查
▁equivalent
多次
▁(2001)
ensing
hemes
▁claimed
SS
的和平
人权利
alk
▁Prohibition
▁所
atible
▁colle
▁possession
▁Youth
▁·
全系统
小企业
cess
-2006
现状
▁事实上
▁orally
塞尔维亚和黑山
思想
逐渐
确保在
▁felt
▁Sol
▁input
早期
的利益
▁detained
2015
gor
utan
回返
清除
onomy
▁主要
网址
表示赞赏
▁arbitration
DR
▁Char
至第
▁临时议程
和决定
▁Sahara
穷国
的性质
丰富
-2004
Con
▁62.
性别观点纳入
▁dimension
ape
▁Bet
之间的联系
▁tribunal
裁谈会
▁lay
▁adhe
▁Equal
代表欧洲联盟
▁officer
▁nutrition
ami
社会保障
东耶路撒冷
仍有
outi
出售品编号
冻结
观测
在纽约
开展的活动
▁Expresses
一人
认捐
▁Investment
量的
引起的
▁relate
tivation
▁Barbados
▁operative
▁harmonization
很难
itary
人道主义事务
巴塞尔
的答复
帐户
老挝
被迫
▁responded
位置
▁SA
筹备工作
▁Maur
▁Arabic
培训方案
▁code
库曼
▁以下
▁Country
使他们
和原则
被占领土
作出努力
1373(2001)
FC
▁get
公约草案
▁treated
▁schedule
吉布
itage
▁prejudice
▁cust
迫切需要
▁prefer
▁allowing
负债
优势
utting
▁length
马达加斯
▁talks
普查
▁path
▁interpre
▁platform
▁understood
马达加斯加
▁Disaster
对所有
不结盟
循环
▁cli
政策和方案
▁coastal
cus
aires
作业
EPAD
▁CEDAW
water
的地区
▁Former
▁Inspection
▁instances
斐济
并促进
适当措施
▁suppor
不够
▁illust
▁generation
强制性
据称
▁absol
▁Po
比额表
▁Wed
▁人们
▁prosper
▁人权委员会
▁argu
uda
施政
说明了
社会经济
(2004
▁newly
发展中国家和
▁title
▁schemes
主席团成员
▁gains
▁Region
▁organizing
▁amb
anges
riendly
▁包括
土库曼
lavery
▁propose
▁Investig
▁responding
复员和重返社会
借此
复原
捍卫
和分析
▁evaluate
▁Tok
▁bor
货币基金组织
婴儿
翻译
▁63.
这种情况下
▁Today
培训班
西撒哈拉
▁mutually
1-
▁begun
▁unan
制约
以及与
wana
分歧
彼此
常设论坛
▁calling
持有
.16
的谈判
istr
▁他还
结婚
和非政府组织
指导原则
出现了
变革
▁annually
的保护
合格
ocs
,19
▁facilitated
关联
▁Gren
/2009/
▁rejected
服务和
▁comprom
▁qualified
国家元首
▁incom
吉尔吉斯斯坦
▁Facilit
现在请
▁interdepend
德班
▁feed
▁Incre
▁Delegations
▁productivity
/27
塔尼亚
大幅度
▁quarter
▁hol
▁militi
ENT
吉布提
ursday
▁performed
发生了
/2002
▁things
茨瓦纳
▁desertification
▁Current
▁应该
穆斯林
▁Penal
▁revital
▁谨
▁conducive
能力和
boundary
运人
格林纳
常驻代表
▁vocational
▁doubt
▁techniques
SG
ush
位于
互联网
妇女和女孩
大会的
▁mitig
▁machinery
博茨瓦纳
▁UNITA
犯罪行为
▁verbal
有责任
不要
探索
ibouti
▁reaffirms
▁commentary
定罪
简单
行径
▁Del
储备
当然
▁crop
▁随着
▁Thursday
▁execution
▁120
的概念
▁seized
尼日尔
▁judgement
简要记录
的政府
继续进行
的风险
的手段
▁introducing
ascar
▁inhuman
(1);
▁texts
▁encoun
▁creditors
agascar
▁Custom
▁salary
▁disabled
臭氧
提高认识
▁澳大利亚
▁fiscal
▁Standing
口译
▁建立
内斯
▁DC
▁necessity
▁instead
的援助
增加到
清洁发展机制
▁injured
▁commended
▁开发计划署
▁negotiating
专家会议
亚太经社会
▁excell
▁changed
▁accordingly
东部
▁Arbit
▁academic
▁Strip
简化
有力
维尔
以及为
▁dig
▁controlled
个人的
法庭的
▁Ham
均衡
其任务
▁ceasefire
/21
一条
运用
该方案
1989
特别注意
前景
已成为
国家和国际
阿拉伯联合酋长国
不过
列为
联合国机构
难民营
第一个
zone
▁cooperative
▁professionals
ugg
▁AND
流行病
第二章
▁diversi
暂时
lot
▁64.
世纪议程
▁north
▁underlying
特使
最大的
老年人
附加议定书
▁Bhutan
本报告所述期间
▁guaranteed
提供支持
分至
已被
▁define
▁Articles
▁seas
▁arise
内政
▁Air
▁wrongful
▁dimensions
军火
社会和经济
消除对妇女歧视
American
▁neither
vile
▁ensh
▁Cypri
深信
核试验
▁board
▁contractual
散发
iro
不得不
▁showed
Islamic
▁objects
▁ausp
▁asp
成员国的
▁else
是指
▁greatest
召开的
有关各方
一贯
将本
uls
妇女参与
▁OECD
▁endor
▁emphasizes
rs
友好
nesday
雇佣
取得成功
,2002
▁flexible
有着
缺陷
aka
▁Industrial
涉及到
刑事诉讼
-1999
为荷
CER
liers
▁municipal
项目厅
▁biodiversity
之处
毛里塔尼亚
欧安
赠款
咨询小组
封锁
讨论的
高兴地
▁Indian
▁Forests
经济合作
的局势
▁Djibouti
协调会
▁fixed
在全球
lawful
升级
质疑
的立法
▁facility
▁65.
经合组织
iaries
平台
金额
12.
▁Sit
邮件
iji
minent
▁Durban
UT
计划和
▁Wednesday
▁injury
曾经
等问题
].
常任
▁$2
主导
▁households
响应
难民和
▁reductions
海牙
以及关于
▁12,
▁Hague
▁cluster
▁suggest
▁absolute
的地方
摆脱
的综合
▁soft
严重违反
▁detainees
罗姆
日终了
▁stocks
本组织的
方便
设置
这些措施
ario
▁root
▁remedy
方面取得的进展
法院的
▁answ
ecuted
ructuring
的领域
.1).
▁returned
常驻代表团
选出
以上的
还没有
▁Tob
ourse
▁Turkmen
、1
生计
▁ones
ley
reoty
inated
▁comprising
▁eligible
之内
也应
国际文书
▁Corruption
并于
土库曼斯坦
振兴
理论
犯下
补救办法
或不
▁提交人
麻醉药品
▁aspect
免受
对策
减少了
html
▁Basel
▁Contracting
发挥作用
▁computer
▁built
▁seventh
都能
经共体
披露
▁ahead
另有
消灭
受教育
▁respected
分析和
开展合作
▁instit
▁summar
▁tangible
/33
进程中
▁amounted
伊斯兰会议组织
易受
加强了
再生能源
国际恐怖主义
depth
▁Source
▁actually
vise
▁Within
的立场
▁hal
undred
Ind
结束时
▁danger
ipt
届常会
1988
▁Rad
effective
▁rapporteur
全民
▁punish
征求
▁notably
▁deeply
▁unanim
制定的
▁Madagascar
▁auspices
东欧
▁ECO
-0
def
系统地
sk
间的
以实现
▁check
10.
构成部分
联合国出版物
▁(1999)
▁elaboration
负面
▁allowance
lder
表示支持
▁mark
▁Kar
档案
或处罚
所有权
重点放在
年初
ceans
▁mention
▁package
▁br
▁rapidly
▁characteristics
▁Illicit
直到
部队的
/48
▁facilitation
相当于
▁applying
▁临时
得不到
▁Progress
▁issuance
▁locations
entieth
▁limitations
▁194
CMP
titudes
gregated
▁enshrin
▁Emergency
▁repatriation
▁Mechanism
里约
以支持
创建
▁监督厅
正式语文
▁1540
核实
▁Lastly
▁disappear
第九
▁opposition
▁electric
双重
▁Earth
▁behind
增进和保护人权
▁expanding
布雷
▁在同
圆桌会议
bre
▁south
▁contacts
dec
和中国
自由和
▁Monaco
老年
▁agents
知情
(“
inal
主动行动
▁hearing
▁ODA
▁nar
经济委员会
▁Question
亚那
▁bul
(2005)
▁我们必须
▁convey
▁Biological
ultures
▁liaison
公民权利和政治权利国际公约
otal
▁委员会在
▁convene
750
的形式
的代表团
联合国系统内
的严重
uthors
领土完整
▁tend
sessional
和司法
区域合作
▁55/2
的必要性
▁foundation
▁...
orough
ountain
ude
cepts
▁heavy
tian
▁nearly
▁wastes
与会
圭亚那
idad
itals
▁therein
的数额
谅解备忘录
谋求
资源和
▁divid
▁orient
▁formulate
共享
工作和
▁75
这样决定
▁pollution
Aligned
▁thanks
-4,
1540
iable
▁Local
7%
▁feel
日常
的特别
▁deaths
共同努力
性意见
▁(2000)
完善
工业发展
▁usually
农民
entives
rator
也可以
经社理事会
▁Workshop
▁Gol
▁trials
艺术
SIL
决定将
aters
▁Final
▁disseminate
-14
▁accompanied
的限制
▁66.
wealth
▁harassment
▁65
我们对
的记录
▁manual
正是
▁Consequently
预防冲突
mbuds
alition
▁hostil
▁drawing
▁registry
恰当
脱离
esty
还需要
▁wage
▁次
▁11,
/53
技术的
allel
它在
知识和
▁Era
大会主席
▁Maurit
▁presents
科技咨询机构
▁defenders
▁prospects
性别平等
▁remarks
▁Relief
▁Regarding
时代
注册
利益有关
▁wall
团长
▁marked
库存
erend
▁draf
做到
关闭
-19
▁fear
向大会第六十
义务的
lock
▁please
持久性
港口
▁recall
▁thorough
削弱
▁20,
▁Bots
忆及
人权机构
健康和
技术转让
约束力的
post
/2008
▁contingent
LA
撤出
附近
的人道主义
▁Botswana
▁competitive
4(
培养
摩亚
yana
的价值
编写的
▁district
开办
▁abroad
▁regardless
/59/3
▁village
▁Even
▁特别委员会
▁managing
穷人
萨摩亚
▁loans
建设和平委员会
▁competitiveness
试点
Agency
▁arre
免疫
▁10,
▁Rio
市场准入
不稳定
名成员
▁concerted
▁Officers
发动
Par
的附件
方面取得了
附件一缔约方
▁replaced
▁corrigendum
中的作用
犹太
exp
▁stor
▁historical
允许我
cents
utable
▁relates
▁generate
实验
atories
▁stereoty
-16
有效执行
▁surveys
被害
这一目标
▁attempts
▁macroeconomic
共计
wan
打击跨国有组织犯罪公约
15,
▁receipt
▁Log
▁pill
emy
▁fif
▁possess
/31
▁denied
udgeting
▁eliminating
▁consultants
▁Constitutional
前提
马拉维
▁uniform
▁Colonial
置于
▁Combat
▁difference
变动
▁Stresses
也将
事务委员会
▁filed
▁gives
▁alternatives
▁instructions
和社区
▁IC
基于性别
▁underlined
▁laid
赔偿责任
ulsory
uer
.2.
▁violent
殖民地
called
▁imperative
任用
所提供的
▁meaningful
特别会议的
▁到
人事
▁closer
会期
转型期
补助金
haps
▁CRC
▁precise
▁anticipated
自由化
国家发展
戈兰
接收
▁buyer
▁mix
▁Building
▁discharge
▁Turkmenistan
▁confisc
▁下列
▁Lao
▁delays
▁lawyers
▁frequently
▁landlocked
aining
▁labor
▁counsell
▁maritime
法外
的能力建设
▁succeed
对儿童
▁undersc
▁univers
treal
▁Series
ceptions
核能
船舶
低收入
▁methodologies
)]
▁Ocean
月的
tin
▁confron
用作
itted
▁themes
▁correct
▁northern
提供必要的
ashing
修建
▁67.
文件中
▁Ali
权力机构
行动方案
▁Eradic
日生效
▁bill
▁authors
▁malaria
▁Sch
▁accid
外债
▁summits
▁endeavour
isp
▁支持
▁Dialogue
▁2002-2003
电子商务
acing
▁gather
▁carrier
▁Muslim
▁journal
高于
紧急情况
▁providers
指称
▁Fiji
▁starting
暴力侵害妇女
月底
▁sw
▁maxim
▁favourable
▁ON
建立的
更广泛
▁Ins
号法令
表示感谢
▁的
保密
SBI
▁stead
检组
第三方
章程
mosp
▁(2007
▁entrusted
族塞
,1999
代表团认为
各机构
并根据
爆炸物
进行调查
有了
协调厅
履行机构
结论和建议
▁sensi
▁align
urances
▁station
▁purchase
lin
▁shipp
由联合国
▁(2);
▁derived
利尔
eches
▁1994,
批款
配置
▁twentieth
▁psychological
▁依照
的变化
▁accred
▁Evaluation
的家庭
▁150
特设委员会
▁OS
是通过
▁Capacity
▁train
▁replies
▁epid
区域和次区域
(2003)
人身
分担
布鲁
ounded
▁Les
▁struggle
zing
▁Decree
执行秘书
▁cultures
的和
美元的
▁defer
▁evaluations
▁appreciate
ster
compass
▁incurred
▁**
oliv
▁Only
alysis
未决
▁inhab
▁伊拉克
中等
必不可
的公约
▁Prior
▁complementary
疑问
-23
55/2
▁entreprene
盟约
授予
作出的努力
▁recalls
▁Commonwealth
贯彻
闭会期间
▁Cape
▁Malawi
▁department
▁restructuring
并要求
管理国
路线图
达成协议
该缔约国
andan
▁eradicate
公路
和资源
分布
ole
▁Kyrgyzstan
执行的
力求
旅游业
table
▁retain
还必须
▁(2006
卡拉
▁CO
▁印度
▁Mart
erendum
▁engine
olivarian
记者
了一份
荒漠化公约
▁transl
▁durable
▁instal
▁testing
▁Spec
▁cance
最多
管理人员
驻地协调员
/29
地方当局
该国政府
racted
ilation
▁inside
▁ammunition
为联合国
(2002
▁Bearing
▁perspectives
IDB
妇女和女童
▁estimate
▁Cer
设保
这些活动
▁defend
▁consolidate
▁enhancement
部门和
特别程序
▁unity
▁enshrined
顾及
是否有
/62/6
关于联合国
巴勒斯坦难民
▁freely
▁Related
▁incident
放射性
▁renewable
经费筹措
.1/62/
▁isol
第五委员会
fortunately
personnel
▁六
的现象
uesday
续会
金属
ets
受害者的
▁资料来源
家园
用水
▁68.
▁environmentally
aba
enable
▁Conflict
蒙特利尔
撤销
重债
可能是
的比例
annes
article
▁outset
.109
借此机会
▁monthly
▁suspec
▁Consensus
▁liquid
▁attract
IX
WAS
主持下
▁credibility
受伤
▁Montreal
ault
较低
▁Hel
▁simpl
健全
▁supplementary
,(
▁Enh
▁patterns
海外
.1/60/
▁finds
▁Customs
也可
依存
操作
秘书处的
▁Golan
▁beings
▁hundred
标题
蒙特雷
、“
塞族
▁Monetary
▁SME
▁bis
▁lands
布尔
▁阿富汗
▁Tuesday
▁acknowledge
▁lif
Af
的许多
▁Legislative
空中
二十一
反映出
所造成的
▁register
▁allows
宗教或
全体会议上
10,
的规则
▁generated
▁Directorate
》)
ney
/60/6
▁priv
▁distingu
▁persistent
▁deemed
各类
四年
mitted
▁relationships
▁,
util
▁worth
▁Mauritania
不人道或有辱人格的待遇
▁install
非法贸易
▁participatory
小武器
该国的
,2006
▁IT
必不可少
FOR
执行委员会
筹集
▁servicing
iy
fficiently
▁Es
并支持
贩卖人口
Original
处的
voy
▁Abu
公司的
▁Mrs
▁exists
▁briefings
其余
xic
判例法
orese
▁Independence
rating
treatment
▁supervision
International
贝尔
非常重要
中间
保安
加蓬
▁assurances
endix
▁subjects
7(
辅助
▁经济
审议的
▁一般
准则草案
▁liberty
▁parallel
每月
将这些
高级代表
terrey
▁SBSTA
国外
▁desi
enhouse
▁School
▁juvenile
▁Cop
▁Tribunals
▁Sign
接近
▁programs
▁Institutions
支柱
▁任何
▁seems
ulates
▁mandatory
▁congratulate
.0
善政
能力的
▁coer
▁removal
▁excessive
▁conviction
SBSTA
▁Judge
▁dependent
或加入
▁ending
巴塞尔公约
清楚地
▁uncertain
并呼吁
竞争力
理事国
oured
否决
详情
any
拟议的
mbudsman
灵活性
gently
▁capable
香港
跟踪
提供给
band
经济共同体
毛额
▁古巴
like
▁won
活动中
▁debtor
▁tables
撤回
ota
的状况
和妇女
▁sectoral
58/2
▁(1999
▁Monterrey
无害
▁assume
▁viable
▁vacancy
和培训
▁mur
约翰内斯
▁teaching
▁speeches
动议
在与
▁eighth
报酬
▁incentives
通过一项
▁diamonds
▁AS
holm
▁unp
向安理会
做出了
▁Ens
是否可以
两年期方案预算
下去
▁reserve
.4,
▁preserve
处长
index
(2006)
▁apparent
的一份
所有其他
特设工作组
约翰内斯堡
▁innoc
2002-2003
▁2006-200
▁Participation
第四次
记录表决
▁passed
annesburg
国际社会的
/64
和平解决
区域中心
世界贸易组织
将与
▁thereof
)/
▁Ed
▁参加
和信息
▁69.
▁cou
▁encompass
伯利兹
玻利瓦尔
5,000
▁addresses
第十四
发展基金
▁moral
索托
缩小
▁orders
▁kept
监察员
▁Violations
No
缴款
国家方案
(2008
▁employers
关押
▁Rac
不丹
核证
▁expectations
局面
%)。
▁130
十分重要
▁farmers
,2007
开展的工作
▁clarify
多样化
▁Serious
▁73
▁allegedly
案件的
▁undermine
▁图
加工
富有
atal
▁permitted
都应
▁Statistical
▁necessarily
pped
tar
▁software
▁Reporting
▁observation
▁阿
外地办事处
month
除外
描述
▁villages
这项工作
或其
▁Belize
被占领巴勒斯坦领土
IM
/20
国家机构
制品
▁18,
投诉
)).
▁ign
▁rob
▁custody
▁momentum
US
告诉
▁特别是
▁consequence
▁发展
的服务
represent
案件中
同时考虑到
▁interactive
做了
所属
▁tur
全球环境基金
采取步骤
▁reportedly
▁法院
▁Back
结核
条例和
的程度
▁How
▁symp
▁urgently
▁clarification
统筹
.1)。
和家庭
▁accelerate
无效
发生在
ergies
▁citizenship
执行计划
两种
▁ensu
▁concepts
▁harmful
是以
isite
▁Survey
▁preval
组织和非政府组织
▁要求
▁本记录
▁regarded
▁coordinator
相互依存
代理主席
▁Post
▁Suppression
阵线
▁Det
tr
▁going
▁repar
▁description
ils
人民民主共和国
▁External
职类
iver
▁70.
istical
▁$3
人权状况
As
.23
和多边
国际金融
▁medic
奠定
▁Cred
▁literacy
-8
的看法
▁aspir
Sah
恐怖主义行为
▁Guyana
普通照会
正在进行
▁army
▁advances
强调必须
▁hopes
▁seats
EAN
给安全理事会主席的信
,2
领袖
都在
的计划
两级
▁Business
日举行的第
▁stockp
▁gratitude
基本上
理想
各国在
的审查
成本效益
部长级会议
▁morning
▁Migration
▁guideline
成立了
约束力
提供一个
▁Stockholm
权威
UNDP
首脑会议成果
尼达
这些建议
委员会第十
▁suitable
▁beneficiaries
/49
▁collect
▁dynamic
的军事
12,
▁willingness
全文
高等教育
▁targeting
▁Situation
▁comparative
对抗
▁Samoa
屠杀
以提高
▁carefully
面积
▁另一方面
▁Before
武装冲突中
▁Basic
▁inequality
grade
▁Senior
▁budgeting
▁storage
▁attributable
提到了
▁suffer
▁urgency
准许
rinidad
减少灾害
▁copies
▁degrading
法律文书
▁guided
1:
DB
公共行政
结论性意见
日内瓦办事处
▁thought
计量
一届
毫不
期间的
ming
▁som
▁Outcome
法律援助
▁1993,
深切
行动和
分发为荷
法的
在某些
▁cruel
▁MDGs
▁impose
之时
appro
develop
▁offset
入境
FPA
▁继续
东南亚
▁master
▁mobility
▁insecurity
人权情况
▁moving
一致认为
提出的问题
erated
▁inspection
还包括
的国际合作
▁consistently
▁Case
▁Sex
这一进程
ashington
▁porn
巴哥
干涉
▁certification
村庄
领域中
营地
认证
负责人
国际组织的
▁&
东盟
剩余
的受害者
公务员制度
withstanding
▁会
▁logistical
OC
采纳
alienable
uss
各成员国
海洋环境
了其
裁军和
▁Responsible
分割
assive
Le
斯德
/3/
通过其
并注意到
术语
脆弱性
▁separation
国家在
.3/62/
、《
▁Ban
秘书长在
▁Data
▁Tobago
首都
▁carbon
暂行议事规则第
▁compulsory
欣见
的权利和
西非经共体
反对种族主义
▁Logistics
▁Canad
老挝人民民主共和国
▁attitudes
▁parliamentary
委托
所说
.21
决议中
▁outline
▁Adv
等等
获得的
▁71.
促进和
iqu
country
动态
期待着
Chairman
所有这些
条规定的
▁prob
▁Regulation
DS
迹象
▁1998.
▁duplication
▁Mu
▁whereby
▁Requ
阶层
▁Ber
▁963-
▁acquire
▁verbale
▁acquired
▁restricted
为在
▁66
之一是
room
所指
▁wa
▁assumption
▁announce
▁workload
代表在
委员会对
▁enforced
▁counselling
▁heritage
要点
holder
▁abuses
▁currency
▁mothers
▁vehicle
公里
检查组
laim
▁brid
▁Freedom
▁suppliers
、2
弱势群体
elfth
judicial
▁pregnancy
dro
back
》(《
/2002/
▁proved
说法
在其第
大会议
和平与稳定
▁exploration
特立
尼达和多
没有得到
▁firmly
kew
年中
面向
巨大的
支配
缴纳
kok
ales
、4
救灾
▁industries
身体
是联合国
国家工作队
儿童问题
vation
哥尔
提倡
▁Rem
▁Alliance
想法
▁Efforts
▁benchmar
等待
加强对
▁72.
经验教训
itious
尼达和多巴哥
承担的义务
▁NEPAD
▁invasion
多少
关系的
电子邮件
措辞
西洋
▁IF
六个月
▁vary
应为
竞赛
▁headed
增至
▁Sc
征得
得角
哥尔摩
▁次级方案
nuclear
斯特
绳之
rais
有机污染物
▁eastern
▁obtaining
▁immigration
地方政府
ariff
▁significance
实物
方法和
应将
重叠
斯德哥尔摩
▁cited
▁credible
auc
▁行政
佛得角
人权教育
航天
及文化
一般性意见
▁facto
裂变
在这个
指挥官
第二部分
为什么
被剥夺
信通
oking
▁affirm
▁destroyed
适用的
▁17,
▁capability
而非
▁Press
▁unions
▁Democra
船只
▁预计
▁Grant
▁Contin
▁correspond
根除
赤贫
ulf
▁Desertification
▁ordinary
05
AB
名称
提供了一个
大型
的趋势
家庭成员
▁mediation
后勤基地
▁Sector
▁stronger
买卖
▁VIII
wh
公正和
▁Lim
为基础的
ceptional
▁arbitral
预防性
全面禁止
海事组织
核材料
▁news
ispens
权限
UNC
▁(2002
摩尔多瓦共和国
▁restoration
的第一
persons
工作文件
管理系统
▁girl
并提供
日星期一
等方面
▁Secondly
▁intends
原件
▁Bl
所采取的
在非洲
我们将
支持和
agen
▁16,
▁ESCAP
▁approve
▁indispens
▁DP
▁USD
人口与发展
玻利瓦尔共和国
UM
直至
▁commodities
二十一世纪
▁fill
▁diverse
欧安组织
▁Diversity
▁safeguard
▁hands
代夫
以确定
和国内
的联系
代表和
巴布亚
会议期间
▁Racism
增长率
政府对
设立了一个
解释性
黎部队
▁sponsored
Sh
▁19,
一个国家
ulsion
▁Comment
▁Rev
ecture
des
▁refrain
基金和方案
▁desire
▁assumed
IGH
▁已经
▁在过去
▁OSCE
ptions
▁observance
、21
马尔代夫
isive
▁analyse
▁explosive
部落
▁Fig
▁Ram
under
▁legitimacy
排雷行动
▁委员会欢迎
riminate
▁revenue
▁involves
▁我要
▁provincial
原文
-3,
▁(4
uries
ndered
▁program
▁64
▁IS
ondon
代表团成员
▁Recognizes
▁indispensable
ches
中小企业
绳之以法
utory
托克
连贯
在实现
调查结果
▁Cuban
▁Substan
经济和社会事务部
灭绝种族
▁Electoral
New
训研所
▁collected
▁negotiated
▁Na
的人的
▁73.
▁IMF
的暴力行为
ented
一般性辩论
▁track
▁condemn
▁hus
location
▁granting
▁deprived
委员会第四十
人类发展
两年期拟议方案预算
卫生部
任务规定
▁intim
▁shelter
▁adolescents
助理秘书长
和其他残忍
DCP
iland
▁人口基金
▁inhabit
特立尼达和多巴哥
versities
倾向
uling
▁chain
▁middle
▁Matters
持久性有机污染物
▁provinces
▁Bu
外国人
▁advisers
病毒
福祉
)),
▁Access
▁15,
一半
附录
国际劳工组织
▁Punishment
赞助
评估和
▁GDP
▁standing
▁atmosp
最为
▁End
▁Reform
▁hostilities
▁intelligence
不安
本人
rich
uggling
监测和评价
▁Voluntary
离职
▁authorization
▁disadvantaged
标志
煽动
和平利用外层空间
/2,
的提议
的各项建议
▁unequ
▁admissibility
区域一级
幼儿
监护
预期成绩
付诸
▁stat
▁Congol
▁Analysis
▁presentations
对国际
第十二
▁council
▁constitu
▁strictly
▁Participants
▁substantially
105
签署的
▁absten
▁wealth
同事
捕捞
/1998
▁stay
▁correction
PS
会员国的
ko
百万美元
联合国和
▁fees
▁Between
▁excluded
有用
在大会
最近的
apping
▁UNMIS
itative
▁Kuwaiti
教授
▁manifestations
比如
cor
合理的
resh
▁Nat
▁WFP
移徙工人
买方
cious
]。
NGO
▁CR
1967
国内流离失所者
(2001
单元
▁quickly
圣马
ceived
大西洋
▁appointments
▁appropriation
运载
▁Narcotic
的精神
承受
代表发言
▁安全理事会第
多名
▁seller
▁(2008
▁millions
在不
▁exceptional
代价
短缺
▁hom
,2001
▁件
开采
▁Body
地名
的数量
▁aqu
▁Claim
unitions
▁Trinidad
ox
化碳
/2/
主管当局
kewise
▁hosted
▁integrating
预见
▁phr
新几内亚
近期
▁accurate
选民
道尔
.26
非国家
▁Verde
核准的
▁foot
联合检查组
titution
▁emergencies
▁systematically
En
参与了
各国的
性问题
这种做法
所作的发言
事务和
VIII
▁Gra
曼谷
mbol
-2000
mental
▁grantor
/46
oked
▁encountered
▁Id
▁warm
犯有
的某些
▁translation
苏丹政府
从而使
▁Proper
NPT
庭长
▁CDM
▁Congolese
季度
所提
或许
tel
见下文
巴布亚新几内亚
面临着
▁inad
▁predictable
先决
该特派团
las
cutting
▁greenhouse
Ag
nex
East
▁13,
安道尔
.1);
▁elsewhere
MISC
▁ministers
▁squ
加大
还指出
其他职等
将性别观点纳入
▁Studies
▁Proposed
莱索托
▁delayed
▁chaired
措施和
以西班牙
委员会认为
▁formation
▁realize
假设
不人道或有辱人格的待遇或处罚
测试
范畴
市场的
为此目的
endar
并重申
Saharan
▁Branch
条和
/6/
▁appeared
对外
身心
awa
巴哈马
各缔约国
并建议
联合国总部
▁weapon
▁Conferences
过度
120
问题特别
并请秘书长
的分析
reet
不可剥夺
日星期五
但不
一段
真相
▁enrol
轨道
▁更正应
▁mostly
▁unaccept
治安
世界卫生组织
▁merely
和消除
▁Standards
ussels
优先权
▁fru
裂变材料
先决条件
工作安排
▁vast
rinking
▁readiness
gram
良好做法
▁adherence
▁submitting
▁Rest
提供便利
factory
大会第五十九届会议
真诚
次序
气象
的唯一
农村妇女
▁irre
▁Trial
应继续
的一致
斯科
非正规
▁hor
▁我们欢迎
气氛
ector
▁第六
▁Communication
东帝汶过渡
▁联合国系统
▁sufficiently
特殊需要
节省
居住在
▁complexity
几个月
及有关
战斗人员
并将其
▁firms
当中
▁Imm
具有法律
和可持续发展
▁Journal
▁consists
所示
法典
跨国公司
消费者
这些目标
▁实际上
国家和人民
▁Multilateral
造林
▁expos
和更
▁上述
本国的
ectronic
惩治
▁poorest
▁Conclusions
只有在
国政府
▁在同次会议上
▁transmission
iqué
日星期四
警方
▁incons
划界
十三
第四委员会
CB
对在
措词
▁58/2
▁restore
reas
计划生育
▁Interior
▁pregnant
ambular
生物多样性公约
/52
▁apportion
PM
截止
生境
▁Johannesburg
想知道
含有
并由
▁(3
的倡议
日通过的
境内流离失所者
▁killing
极大
▁教育
协助下
▁House
法文
▁Gabon
它们在
的财政
联检组
▁focuses
疫苗
的事实
充分利用
dives
年前
/1,
▁cas
▁Bangkok
事情
贫民
amas
▁又回顾
▁gained
的改革
▁COM
▁inhabitants
和机构
▁fulfilling
国际标准
ussian
▁ninth
▁定于
▁欧盟
为促进
▁decolonization
民族和解
61/2
isting
▁Andor
▁expressing
固定
是由于
▁Treaties
奴隶
有担保债权人
众多
士兰
-9
reek
保障监督
inational
并敦促
联合国打击跨国有组织犯罪公约
、3
传真
势头
和贸易
▁74.
▁pose
▁Concerning
长的
信息的
发言人
after
spons
这一问题的
▁fores
并以
指明
▁Upon
文化权利国际公约
族塞人
雇佣军
▁Conduct
统计数字
▁possibilities
▁社会
owned
leb
、19
otho
▁innovation
▁excellent
▁exchanges
签发
unications
▁foundations
ker
▁Bec
被占领的
以西班牙语发言
▁pornography
公约的
委内瑞拉玻利瓦尔共和国
撤离
tory
本着
.22
利益有关者
.30
ext
不仅仅
首脑会议上
▁online
▁preambular
一再
▁obvious
免遭
提议的
大会通过
illance
▁corporations
多国
运行
同联合国
当代
的一次
该条约
作了发言
反映在
▁province
植物
▁truly
▁fer
▁Army
▁page
▁send
回收
的因素
科学及文化
任务的
言论自由
▁choose
▁models
担忧
税收
的地位
BT
距离
10/
▁delegates
▁instability
合适
rets
▁instalment
▁salaries
民用
tmost
博士
Ban
herent
▁digital
▁ecosystems
▁75.
wards
▁limitation
此外
的犯罪
onal
▁precurs
可否
证件
▁occasions
▁prevailing
爆发
薪金税
erving
既定
设定
orig
vileges
实例
合法性
预算的
▁cancell
▁bomb
▁enorm
仇恨
▁utmost
▁Canadian
▁Unity
▁minimize
战略的
inet
▁spent
▁double
▁Ombudsman
war
▁perhaps
EL
rupt
▁City
▁代理主席
特性
海洋法公约
▁plant
增多
在一个
▁Workers
和合作
▁marginalized
姓名
/38
和支助
面临的挑战
▁retention
丈夫
国务
中止
▁remun
▁television
osen
个案
修订的
▁pursuing
▁Reiterates
▁Lucia
庆祝
▁normally
、5
下一次
▁aged
urb
带来了
分摊比额表
组织了
ille
重债穷国
▁Closed
▁motion
▁referring
表现出
保护儿童
价值观
占领国
可以通过
▁Thir
▁depends
▁administered
ras
利息
▁resolving
地中
执行部分第
▁prevented
年开始
▁assure
▁finalized
▁法国
号来文
(2);
向秘书长
难民事务高级专员办事处
▁formulating
调查表
▁recruited
▁(1998
▁Center
▁Prevent
▁religions
GE
▁prosperity
ez
及农业
很大程度上
通过的决议
强有力的
已于
等领域
ordinary
▁accorded
率和
▁Oman
反腐败公约
istrar
▁initiate
▁telecomm
▁welcoming
▁generations
最大限度
-7
维修
所产生的
不容忍现象
▁Envoy
▁career
AF
在委员会
umber
青年人
▁Three
分列
以便使
的一系列
▁enabled
▁slavery
hips
▁Har
向安全理事会
权力下放
▁Maldives
安全问题
regular
促进和保护人权
▁在本报告所述期间
多年来
▁UNCCD
▁devices
这份
在促进
充分参与
的缔约方
预算外资源
无疑
1540(2004)
uct
▁Greek
▁merits
学会
▁residents
RES
实施了
的事项
▁还有
▁quite
公共卫生
布鲁塞尔
协调中心
▁maternity
▁Brussels
特别关注
.3/59/
▁铭记
尔先生
note
之际
就其
▁Decolonization
进一步的
▁consistency
(4
原籍
避孕
两年期方案
▁Standard
发送
59/2
▁tried
▁innocent
▁cultivation
常驻联合国代表给秘书长的信
这次会议
],
个人和
举办的
不存在
的经费
▁Corpor
▁Intell
▁closure
防范
节目
战争罪
▁76.
▁sales
▁timet
▁allevi
TR
司司长
▁suggestion
中亚
房地
收养
-12
效率和
▁Volunteers
与各
变成
款规定
缔约国的
▁Base
▁subsidies
▁dates
pective
▁incomp
▁updating
中发挥
并采取
▁(4)
使用武力
有所增加
▁Substantive
美洲国家
orestation
流入
支助团
risons
▁benefited
oub
非洲发展新伙伴关系
危害人类
▁Twenty
▁也
▁77.
▁Australian
▁consisting
▁preparedness
分钟
很大的
▁ask
赤道
阿曼
处处长
一份报告
揽子
▁landmin
▁Granting
▁justified
该部
作法
力诺
信息通报
▁而
国家办事处
▁Powers
▁remove
▁transboundary
/34
进行协商
▁characterized
和控制
▁Andorra
inations
男孩
作出反应
圣马力诺
现有资源
itive
▁tribute
是有
-11
的最高
寻求庇护
▁Russia
▁UNIFIL
▁civilizations
已经在
的事件
民间社会组织
no
▁Dr
▁executions
独立性
▁drought
▁features
未来的
▁Emphasizes
决定在
卢西亚
▁uph
▁67
武装团体
▁Culture
营养不良
这将
▁meant
▁District
现场
追踪
主要的
政治事务
咨询委员会的
名册
▁devast
和宗教
粮食及农业
ensive
▁Round
多项
国际法委员会
▁businesses
学科
收容
签证
.45
▁assignment
/1/
osi
问题高级别
▁drafted
▁Property
oug
关键作用
▁Bret
▁discip
细节
而采取的
raisal
苏里
日举行
的质量
以帮助
更有效地
联合国千年宣言
▁encumbered
驳回
审查会议
elled
▁waters
这场
一项关于
充分合作
Other
rates
jection
就业和
概述了
警察部队
▁combatants
无辜
强制执行
种族主义和
▁becomes
▁recipient
会见
的评估
继续支持
以协助
▁prioritiz
陷入
布雷顿
圣卢西亚
▁prospec
▁impossible
imp
咨委会
本区域
▁Woods
▁<
▁Iv
加强其
地中海
▁decisive
管理事
sibly
▁Marino
▁statute
▁SBI
联黎部队
service
▁seat
政权
时刻
uba
▁ultimately
各国人民
框架公约
▁Ba
了这一
追加
各组织
全面执行
以满足
按照第
在我们
▁buildings
▁entrepreneurs
.9/6
▁Cypriot
徒刑
布雷顿森林
▁Order
▁inherent
-24
DAF
的部分
使用核武器
▁tackle
▁Lesotho
▁formally
▁indicator
▁执行局
▁Pension
▁via
世界会议
▁comparison
▁explicitly
国防军
结构和
独立宣言
▁establishes
月和
▁div
▁Semin
finance
缴付
/32
哈根
disc
▁unlawful
失败
LOS
妇女权利
▁Committed
EX
百万
▁historic
▁referendum
一家
▁Da
uerto
▁threatened
▁2008-200
和与
信通技术
不结盟运动
财富
-17
在对
种类
▁kil
arcotics
▁言
年年底
▁UNAMSIL
是为
组建
ebted
国内生产总值
▁mountain
▁Age
▁Genocide
摧毁
”),
▁CON
▁resume
团伙
波多
▁1988
▁trac
aneous
▁Organizational
的适当
的会员国
科学技术
产生的影响
▁fostering
part
▁Eradication
▁contemporary
载列
安全与
pted
▁vide
VII
我现在请
编列
oud
开展活动
▁Contributions
辐射
的最大
我国政府
▁Papua
istance
▁born
斯威
▁Bahamas
▁Bretton
▁makers
勘探
以防止
问题进行
和私营部门
tization
▁collaborative
维和部
消除贫困
给予殖民地
▁Washington
▁Subprogramme
▁让
缓慢
▁benchmarks
手续
务委员会
▁Hong
▁exac
emi
▁Kong
▁rich
▁ageing
▁phrase
的长期
▁阿根廷
日星期三
▁universities
概览
下一个
暴力和
seas
的工作方案
▁rapporteurs
1982
年实质性会议
▁promptly
司法系统
多边贸易
这个问题的
▁Yet
达成一致
电台
严重关切
行为守则
反恐委员会
oney
所有有关
▁uphold
批评
▁Once
▁exacerb
也会
十四
的总
▁他说
▁Major
▁potentially
ero
▁Pa
完成了
和技术援助
▁certainly
最后文件
lderly
在任何
苏里南
可能需要
之下的
感谢你
发展集团
建立信任措施
▁monitored
加紧努力
人口贩运
▁calendar
超出
2-750
约有
所有的
有意义
▁pledges
▁impartial
▁annexes
▁tribunals
给予殖民地国家和人民
▁definitions
▁radioactive
中对
适足
委员会审议
六个
andon
▁pand
▁liabilities
-29
rist
▁pursuit
titioners
美国的
▁Web
compliance
▁23,
ATION
和新
鱼类
/45
▁当然
的进一步
▁frag
enhagen
▁Opening
▁exclusively
与国家
▁learn
▁suspended
号决议的规定
选定
ployed
法律框架
▁(2004),
2010-2011
▁Hy
决策者
▁stipulated
租赁
▁pledged
CW
中部
较高
▁我们也
▁195
概况
▁intimid
▁nothing
▁aspirations
▁compilation
请秘书处
arious
elling
▁Certain
动机
致使
情况和
▁CTC
分项目
全球经济
▁survival
伤亡
尔德
▁colonial
▁reinforcing
今后的
波多黎
未成年人
▁enrolment
▁Administrator
并欢迎
类索赔
▁Goal
sectoral
▁governed
可持续发展问题世界首脑会议
以南
很快
point
▁candidate
很高
▁Conf
▁Puerto
▁damages
▁reimbursement
托克劳
▁redeployment
吸取
纲领
▁Lakes
▁sentenced
▁unacceptable
制订了
审判分庭
中学
发援
的人力
基本建设
original
▁heading
DE
一天
▁affordable
三名
oss
▁以及
税务
社区的
该问题
土著问题
▁发展中国家
▁prosecute
战略框架
▁Rural
▁mitigate
组合
▁SMEs
分为
详尽
▁user
▁Addendum
ott
法规的
社会的
▁stabilization
而被
.28
些时候
各项建议
▁severely
▁penalties
do
科学及文化组织
▁Opportun
的冲突
罗马规约
报告了
备选案文
精简
表格
国家集团
社会服务
粮食安全
构想
世界经济
▁retained
▁incidence
和无
同其他
调查和
▁accum
▁indicating
▁Provid
▁closing
诉诸
▁ham
▁postpon
歧视性
tile
森林管理
▁London
▁defining
出色
关注的是
(3)
/51
▁pati
开设
会议的报告
▁ratifying
可信
.1。
高质量
▁suspension
哥本
有效和
▁赞赏地注意到
▁existed
▁elaborate
含义
吸毒
研训
非殖民化
.1/59/
▁resort
全面禁止核试验
▁74
麻醉品
发展伙伴
哥本哈根
重大进展
的决定草案
▁1992,
▁Islam
▁attach
▁analyses
案情
▁78.
不限成员名额工作组
给予殖民地国家和人民独立宣言
将需要
▁墨西哥
问题国际刑事法庭
▁validity
▁Production
▁difficulty
和其他有关
▁domin
国内流离失所
▁leaving
▁$4
▁针对
债务人
各缔约方
波多黎各
▁就这样决定
▁deadline
助长
ander
代表发了言
▁Chris
▁chairman
获益
管理事务
ights
▁emerged
▁subsistence
远远
▁巴西
自决权
劳动力市场
▁1989
真正的
▁RIGH
▁performing
禁毒
ook
▁father
onn
.3,
▁pra
不超过
的积极
展望
追究
并就此
oros
▁Copenhagen
▁termination
▁considerably
已开始
而且还
▁请将本
使命
迁移
▁Ord
一切形式的
▁citizen
将通过
▁pic
essation
▁Registrar
▁logistics
中文
而受到
▁pace
NA
▁72
elau
层次
移动
iname
▁surveillance
机遇
应根据
承运人
▁abstentions
产业
契约
IPC
分列的
▁Amend
▁drinking
▁)
布罗
▁imports
(1998
宗教或信仰
ultinational
先生和
科摩
和其它
的补充
▁species
▁Background
▁extrem
▁vessels
▁securing
传染病
总计划
▁委员会对
.24
举行一次
▁shar
▁looked
巡逻
主流化
仲裁庭
rement
奴役
初级商品
苏特派团
lantic
▁guard
▁proactive
这样一个
多元
该法
艾滋病的
过渡时期
▁replacement
不当
和平的
▁Tel
时的
▁remind
isations
▁feasible
▁incumb
▁Peaceful
环境和
斯威士兰
▁Effective
▁launching
下一
找出
所在地
ethe
制定一项
和非殖民化
Article
新闻中心
▁Explo
▁ensured
▁accounted
归还
工业化
CAT
▁在本
秘书长和
party
▁supportive
国家安全
▁immig
▁realities
的案文
经验和
高级专员办事处
▁Timorese
▁balances
土著居民
preced
▁enormous
▁contributes
某个
遵照
阿卜
部队和
sives
▁missing
aziland
▁Challen
全面禁止核试验条约
gi
▁前
议院
▁nevertheless
年第
1986
▁ratio
▁mobilizing
海啸
▁反对
atorial
▁entering
▁fulfilled
水层
地参与
的业务
工作方法
▁extending
▁disclosure
山区
政治和
这些努力
司法部
外交保护
异议
千美元
▁stands
确切
,2008
▁Because
▁fissile
50;
的名义
▁Pat
及其附件
▁solely
decision
▁firearms
(3
票弃权
▁所需资源
网页
我们希望
危及
检验
以便为
.26/
▁非公开会议
▁simple
▁代表
以解决
10),
▁celeb
每日
将包括
的未来
巴勒斯坦权力机构
和关于
▁typ
必须确保
▁dual
研究中心
南斯拉夫联盟
▁(2003)
▁inval
precedented
▁jurisdictions
teen
▁MINU
▁hospital
人均
深感
alam
2000-2001
能在
aution
▁redress
▁whereas
▁Aspects
▁completely
▁certificate
土壤
ICM
经济社会
它对
各自的
进行谈判
围绕
▁85
▁lies
类似的
▁opposed
段和第
特别政治
Afric
▁Natural
各方面
▁heavily
▁rendered
拟议预算
政治意愿
▁John
For
刑法典
代表参加
▁chosen
▁mining
▁fish
etheless
三项
网上
.29
不同文明
政府官员
▁abandon
ervations
案中
概要
膨胀
警务
原则的
执行情况报告
atim
▁reproduced
法语
和方法
▁indication
法官和
具体措施
▁symbol
▁2000-2001
▁Vir
各部
当今
.2)
sun
和报告
提高了
获得了
费用的
▁俄罗斯联邦
▁debates
▁unprecedented
edi
和有效
并指出
▁scen
日举行的
消除一切形式
薪酬
的最低
粮食及农业组织
▁desirable
逆转
-30
.27
和责任
岁的
指令
▁我谨
▁cut
第三委员会
▁Swaziland
▁convicted
同样的
esti
、21、
印刷
木材
请允许我
和目标
早日
联科
采用了
▁79.
▁accommodation
usion
▁eleventh
学家
号法律
一份关于
▁Prosecution
/35
▁Victims
▁journalists
刚刚
顺序
号公约
▁(2006)
▁hospitals
▁elaborated
▁随后
▁prevalence
米尔
130
Res
进度报告
BC
他说
革命
/198
▁Roy
▁Tokelau
均应
家人
非公开
POPS
的各项决议
▁adapt
▁Discus
▁partial
甲基
考试
很重要
▁tensions
职司
通货
先进
妥善
高级官员
经济及社会理事会第
▁combination
▁preservation
▁大多数
▁prem
▁Figure
基督
联塞特派团
▁justify
gé
意外
-5,
▁XI
政府与
▁vacc
.3/60/
▁appraisal
▁advantages
vić
house
▁parame
作用的
基金和
环境的
缔约方会议的
▁synergies
交给
asa
分散会
docs
▁minutes
Can
▁Inf
日星期二
▁Inst
交存
吸收
▁76
的自由
信息社会
▁resett
文盲
▁Mine
可再生能源
▁profound
提供更多
年审议大会
欧洲委员会
▁realized
cons
illa
延迟
可能对
lers
▁param
▁utilized
▁upgrading
华盛
Test
▁非政府组织
▁narrow
▁simult
识别
逐字
华盛顿
和传播
▁guiding
▁putting
▁manufacturing
留在
节第
条件的
胁迫
(2009
ricts
区域办事处
和政府首脑
▁Without
▁comprises
▁resumption
在许多
混合行动
ambers
执行情况的报告
▁elderly
援助的
fies
▁/
▁Im
科摩罗
enetic
▁阿尔及利亚
▁Suriname
▁references
增设
年起
▁Att
▁pool
▁各国政府
▁commencement
稳定团
aida
因为这些
南斯拉夫联盟共和国
▁decreased
领土的
▁massive
市政
集中在
osting
aterial
)1
美国和
书记官长
▁furn
▁prerequ
▁depending
房屋
▁各项
▁Presidency
沟通
孤儿
数据收集
进行评估
▁none
▁prisons
▁repeatedly
由此
▁Somali
工作人员薪金税
贸易和发展会议
phone
▁heart
国集团和中国
可行的
合作和
STAH
▁在同一
优先考虑
时至下午
▁Study
受援
条约汇编
阿拉伯国家联盟
征税
▁1991,
寿命
招聘
同时也
pping
▁capita
▁normative
蔓延
▁interdependence
仍未
便于
保罗
拍卖
核准了
非正式磋商
复兴
的大
shall
▁neut
▁went
▁duly
▁livelihoods
TE
地下
领土上
核不扩散
while
▁ECOWAS
▁branch
▁engaging
巴尔
106
失业率
54/2
▁obliged
▁recalling
七条
保留的
和利用
达成共识
▁dram
▁Minor
所涉方案预算
配备
颁发
omet
▁remuneration
▁Establishment
▁管理
成为一个
▁Arbitration
冈比亚
提高对
▁escal
▁clause
较为
▁Mc
应包括
▁在这种情况下
▁suspected
重组
院长
的选举
▁Cab
预先
出口管制
ointment
▁reparation
代表以
udence
▁RIGHTS
▁declined
▁promotes
联合国毒品和犯罪问题办事处
建设性的
▁Jean
第二届会议
常设委员会
军备竞赛
Fourth
▁Forest
▁answer
▁serves
▁wording
并酌情
的障碍
▁awa
▁moved
偏见
内部审计
agues
中所载
要求在
▁consumer
周围
1985
所取得的
(2006
atever
前体
公约和
▁phases
▁提供
执行和
▁suggests
分离
▁rely
▁testim
流通
▁68
▁24,
▁weakness
▁促请
▁communiqué
署名
研训所
▁scour
动物
和大会
▁我认为
的框架内
keepers
sensitive
20,
12)9
奖励
应收款
▁vend
session
▁awards
苦难
和相关的
蒙特利尔议定书
▁permits
工商
和批准
▁codes
发展中国家和经济
IA
普遍性
▁index
.1、
▁Cru
▁compromise
署长
▁Os
▁dismant
)*
部门改革
▁Uses
的非正式协商
▁Resolutions
兄弟
警卫
继续与
▁80.
▁ozone
▁enacted
▁commends
▁Programmes
拉加
can
有效措施
秘书长报告
▁condemned
法律制度
达成的谅解
iterran
▁CT
▁Rod
消除对妇女歧视委员会
限额
1987
绩效指标
金融危机
▁causing
16,
▁square
的对话
需要有
%;
供水
的提案
▁OIC
战略方针
▁allocate
将该
▁委员会请
/2008/
/36
ado
▁具体
▁第五委员会
▁Subsid
弥补
访问了
LOUT
▁“1.
▁安理会成员
▁orientation
行预
应予
空气
ray
程度的
za
运送
/44
的后果
▁该报告
▁disaggregated
▁Tu
▁制定
指定的
▁bond
夫人
eop
son
▁Appeal
▁handling
▁prosecutors
170
国家和区域
父亲
在整个
▁Fis
逐字记录
(1999
矛盾
谨慎
▁UNMIL
▁vacancies
应确保
教育的
第一届会议
▁curricula
▁preceding
仔细
以供
指派
谋杀
迫使
任何人
▁rising
▁Personal
成人
▁Light
所占
日之前
▁专家
▁obstacle
大湖
拖欠
▁af
阐述了
▁spite
内阁
不可分割
主席声明
叙利亚戈兰
▁archit
▁producing
的有
▁Val
小型企业
tigua
sub
▁我还要
▁Commerce
discriminatory
上空
本文件
▁Promoting
核算
发展方案
▁Subsequently
均等
第二阶段
erved
▁Rwandan
ão
dam
▁forestry
太阳
FAO
▁dom
行预咨委会
▁sch
▁removed
▁ourselves
含水层
▁chief
▁trying
业已
和地方
▁reverse
表明了
▁Near
▁Democracy
▁deterioration
%),
的存在
联合国环境规划署
▁Maritime
▁afore
respective
自行
违约
原则上
安提
增加的
宗教和
扩大到
1949
▁Experi
▁Comoros
▁Program
遗留
▁进一步
▁husband
人们对
▁channels
列举
月以来
▁Care
▁Indic
▁truth
利害
和活动
充分尊重
并在这方面
和非殖民化委员会
▁extrajudicial
投标
令人鼓舞
▁awarded
iterranean
联合国人权事务高级专员办事处
▁regrets
足以
▁Area
▁Operational
可行性
范围内的
通货膨胀
▁sphere
严重违反国际人道主义法
文字
安提瓜
ulum
,1998
▁adults
▁beneficial
matic
▁ultimate
acc
也必须
和设备
▁esc
敌对行动
坚信
法律的
第六条
▁Sexual
▁Register
医学
失望
最重要的
▁interpreted
编纂
利益相关
国民议会
4”
▁调查
海洋和
的辩论
过渡政府
▁委员会认为
▁surround
安装
osé
▁frame
减灾
汽车
▁81.
▁Camp
▁advancing
文莱
19.
▁Mos
▁offering
牵头
];
实验室
的宗旨
的生产
经常资源
条例和细则
▁databases
日在纽约
绝大多数
采取后续行动
▁arrears
▁专家组
的工作文件
▁UNAIDS
安全理事会关于
▁Seminar
▁acceded
▁municipalities
儿童与
承包商
有关机构
▁inquiry
ić
▁=
▁expulsion
秘密
rolling
▁ST
将根据
assification
设有
的现有
发表了
年轻人
unei
段的规定
petition
▁affects
▁offenders
工作场所
负面影响
▁Four
▁临时议程项目
实务
积累
asp
▁研究
▁drop
▁fresh
大楼
▁slight
▁deprivation
所附
所涉及
领域内
Women
▁comes
▁opinions
▁69
并考虑到
高级别会议
▁realistic
他人
Com
▁Sixtieth
利润
和组织
国家警察
ention
▁ASEAN
▁Madrid
ao
提起
查询
消息
-3)
▁Aid
▁Urban
▁connected
行为负责
measures
改组
▁scal
▁seiz
向所有
的一名
令人满意
会计准则
双边和多边
▁electricity
伦敦
卖方
rans
gments
十五
广大
萨兰
ulos
ourage
▁voice
检察官办公室
▁sentences
对有关
局势的
特别重视
欧洲共同体
票对
▁Mah
ación
蓄意
西欧
附上
▁imbal
▁distinct
▁Chemicals
▁Electronic
你们
占有
iny
▁Goods
发电
▁toxic
▁census
▁annexed
estruction
改造
ikh
的财务
孕妇
有待
款和第
▁Identi
▁Practice
▁smuggling
▁aforementioned
天然
▁prop
▁1990,
proportion
▁atmosphere
次数
160
大会在
的收入
地域分配
inform
▁specify
▁maintains
在印发
▁parameters
,3
为依据
参与者
▁1.1
Pacific
▁Trustees
过分
发展合作
联合国秘书长
▁baseline
▁contractors
所必需
的证据
积极参加
堕胎
所提出的
支助账户
▁Civilian
▁herewith
py
57/2
▁CIS
▁sil
▁reading
布拉
的土地
arte
的任务期限
▁optional
▁Disabilities
亚的
火器
需要和
/59/6
从未
▁我还
▁自从
预算和
▁prove
▁Housing
▁€
▁下
权益
prise
▁wors
.2/59/
▁notion
是与
▁22,
这是一个
ourism
▁remit
地面
保健和
这些国家的
▁dollar
和标准
表决权
感到关切的是
▁calculated
uberc
tivated
▁Barbuda
▁objections
▁yield
CF
的职能
▁审议了
问题的第
▁employer
汇款
日开始
代表团成员一人
克里
▁UNOCI
▁districts
rog
的领导
国际和区域
▁essentially
▁Che
▁whenever
代表团成员一人署名
▁initially
或缺
▁Chargé
碎片
▁保护
的主题
个国家的
▁1970
▁workplace
履约
30,
的框架
▁producers
要在
实现其
的投资
不法行为
信息交流
▁Role
和民间社会
ulosis
一事
采矿
10)
巴布达
的观点
▁appreciated
离婚
▁Eng
的支持下
inder
▁尽管如此
联合国会员国
▁examining
▁inflation
uberculosis
等级
委员会还
vened
▁murder
遏制
ighten
、12
▁healthy
organized
▁bat
包括与
▁缔约方会议
配额
现代化
设保人
▁Brunei
▁agrees
nutrition
▁undertook
高效
▁82.
▁会员国
另一方面
的伙伴关系
▁ocean
▁fellow
fications
危害人类罪
mat
壁垒
▁tem
▁pain
克斯
▁挪威
和精神
1325
常驻联合国代表
两者
抗议
预审
构成了
融入社会
示威
羁押
olars
▁Acknow
▁expressly
60,
▁Bill
priate
进出口
affaires
公职
▁若干
▁stem
▁Expressing
▁Do
审议和
▁Citiz
内罗毕办事处
▁reminded
演变
和重建
我感谢
▁$2,
建立伙伴关系
▁continuity
调集
安提瓜和
被拘留者
▁CLOUT
《21
按性别
▁leader
▁incompatible
挑战和
利特派团
▁exposure
▁FS
known
▁cond
▁disparities
fe
▁Spe
▁巴基斯坦
amples
ussalam
▁suspic
▁71
▁infant
▁declare
▁corrections
2:
▁七
发给
段落
▁soil
和国际社会
人道主义事务协调厅
但它
达鲁
过于
▁brok
▁correc
▁liable
▁observe
▁epidemic
▁justification
住所
信心
omon
rief
▁联合王国
出席了会议
▁imposition
警官
铲除
与安全
亚洲和
第一部分
安提瓜和巴布达
▁每
/39
▁orph
▁秘书长的说明
东南
.40
.2/60/
的同
自卫
可通过
有资格
各项决议
问题的报告
第六十一届会议
/2004/20/
avigation
▁intensive
▁satisfactory
%(
该计划
such
方面的工作
司法制度
▁entirely
▁revenues
年间
▁邀请
所有相关
▁contam
▁Welfare
▁evident
▁picture
▁networking
圆满
108
合作社
▁Mic
本国一般事务人员
▁inalienable
gian
well
备选办法
联系起来
问题会议
赤道几内亚
▁Meetings
数据和
本次
不包括
▁1325
▁Total
▁shift
▁intermedi
提供指导
工作人员和
▁Darussalam
▁occupational
▁Systems
的专家
的态度
▁审计委员会
▁divided
Vi
不应该
valu
▁peacekeepers
提升
的增加
▁coup
次定期报告
▁clearance
科长
▁wages
▁servants
▁无论
我认为
药物管制署
▁Practices
▁munitions
医务
▁83.
等方面的
utants
▁houses
▁Currently
特和
特权
述及
的工具
/55/4
▁Acts
/2000/1
▁viewed
或是
文件和
▁ibid
change
预定
Rec
▁disproportion
荣幸
负责任
主教
月举行的
forest
对发展中国家
▁attainment
▁Poll
sunami
affected
▁finally
▁neighbours
法规的判例法
▁claimants
依法
年鉴
准备金
以色列占领
▁feasibility
不对
或以
私有
▁可以
▁讨论
、11
▁10-
▁Credentials
Sw
6(
案的
▁行政和预算问题咨询委员会
并希望
▁negl
▁(2009
▁easily
▁Overall
副本
批准的
森林论坛
▁Unfortunately
半年
60/2
plan
不可或缺
其目的是
咨商地位
▁separately
的记录上
▁ships
严峻
紧密
这些人
▁Deb
▁fal
国际十年
gic
和占领
▁fruit
▁colleagues
见解
一级的
委员会将
法律规定
▁eigh
▁euro
▁shares
▁summarized
三次
附件三
▁spending
▁exercised
▁赞成
2011
gence
增进和保护人权小组委员会
至今
成立的
▁IDB
▁UNV
▁Judicial
▁消除
发挥了
接受了
ía
▁:
事宜
持久和平
特别措施
达鲁萨兰
体面
贩毒
11.
控制的
▁injuries
在各
的罪行
网站上
问题国际会议
学金
目的在于
osium
▁attendance
扭转
国家或
采用的
▁Parliamentary
方案中
贸发会议的
▁proof
▁deleted
总共
黑山
三分之一
▁adult
▁falling
▁regulated
境况
提前
▁CER
-18
必须是
的指控
▁1,000
▁returning
和性虐待
联邦政府
▁hydro
文莱达鲁萨兰
▁wishing
大众
总是
知名
传统的
系统和
号决定中
一架
▁再次
一切努力
▁unanimously
条件是
的议程项目
▁Considering
不在
为加强
prudence
▁timetable
意见和
面前有
▁TD
在今后
司法机构
”、“
就可以
▁3.1
第五十七届会议
捐赠
重申了
▁Tax
▁Paragraphs
动产
妻子
延期
率为
athe
▁abolition
case
慷慨
auses
▁Views
产品的
▁file
▁loan
▁(1997
应有
确信
联海
以避免
采取进一步
代表性
农业和
十年的
/60/1
▁easy
的经济和社会
▁partly
国家经济共同体
cultural
发展战略
▁Every
确保其
orth
土地利用
这些机构
▁Abst
inance
作为安全理事会
卷入
特区
约为
这个项目
levant
▁evolution
必然
脚注
的文化
马德里
▁Kim
非洲大陆
▁monetary
▁clarified
在有关
赋予妇女
ulted
.1/55/
▁tariff
叛乱
▁另一个
▁town
消除一切形式种族歧视
接纳
罗门
被认为是
资发基金
▁Page
▁(2005)
埃尔
惩处
的保留
▁$5
▁84.
101
严格遵守
得到加强
-2002
▁looks
▁thirteenth
抚养
▁88
夫先生
state
▁sure
尽力
事务处
加入了
和金融
第十九
▁comparable
▁endeavours
的不同
Qaida
▁minors
经济和社会发展
▁destination
对话和
目的地
Canada
▁Gambia
▁disbur
分别为
艾滋病规划署
▁Medical
时说
受到了
▁95
的斗争
▁Destruction
lad
执行第
▁poly
▁scre
得出结论
▁paying
▁interference
▁评估
尊重人权
水和卫生
licated
方面取得
财政期间
▁reserves
▁proceeding
章节
met
军事观察员
onomous
▁irrespective
判断
尔诺
TAET
▁adjusted
拨出
140
LC
以外的
公平的
report
教育方案
文职人员
casting
▁Governor
/1997
原子能机构的
▁assurance
土著人
▁2.1
活跃
▁Mand
对第
▁Held
▁Antigua
▁revealed
减缓
▁Response
的范围内
▁amounting
将向
net
其中载有
的目标是
的过程中
职业培训
透明度和
▁mercury
▁publicly
联合国人权事务高级专员
女工
嫌疑
▁正在
来解决
的详细
妇女地位委员会
北约
重新安置
更有
uan
▁modified
▁university
EG
▁maximize
▁divisions
闭幕
▁58/
国际移徙
echnology
▁translated
▁confidential
应是
kin
▁Don
▁fle
减少贫穷
uming
Report
有一些
▁fri
▁Franc
▁oceans
▁powerful
无视
着眼
自主
所谓的
▁Colle
▁killings
▁Globalization
为该
和平等
初次报告
eopard
overed
▁Coalition
产假
前南
十六
禁令
控制和
▁incorporating
ests
万美元的
▁hat
anged
▁Recon
▁argued
并协助
和平行动
完全支持
撒哈拉以南
附件一所列
▁fragile
▁Decisions
▁refused
应与
标准化
采取必要措施
出发
相辅
venue
教育和培训
▁underscored
清理
妇女问题世界
可供
的制度
▁MINUR
▁geographic
▁credentials
▁communicated
测量
▁asser
可用
总的
/47
直接或
▁treat
forcement
▁德国
区域内
在世界
审计员
关切的是
▁Allow
之日
养老
深刻
的联合
▁Pers
▁owned
▁inequalities
估算
薄弱
▁今年
中列入
▁quantity
的任务规定
规定的义务
第五十六届会议
ca
相辅相
不予
声援
恐吓
报告所述期间
文莱达鲁萨兰国
▁sincere
儿童保护
残疾儿童
▁jeopard
兼顾
对国家
自由贸易
▁confident
统治
安全与合作
▁Particular
▁prescribed
▁organisations
▁78
的关切
▁block
委员会注意到
气候变化框架公约
▁evolving
所有人权
itude
tiality
分裂
将被
明确地
相辅相成
▁UNITAR
▁Capital
▁Equatorial
收取
、20
.4/2004/
▁authorize
▁intimidation
▁结果
良好的
军事行动
定期审查
necess
▁banking
并执行
▁accede
▁Solomon
和国际组织
基本建设总计划
5(
包括东耶路撒冷
款额
论点
agenda
01
土地和
并提出
▁Dire
▁divor
效应
和长期
优先领域
违法行为
的行政
的重大
▁pertin
▁profile
▁proposes
假定
捕鱼
物种
▁这次
为解决
▁intersessional
的适用
评论意见
▁pandemic
▁curriculum
困境
我想
物理
称赞
▁Lead
▁Subsidiary
八条
hat
阿卜杜
etro
gerich
ogen
更广泛的
的组成部分
▁economically
看作
遥感
▁监测
并且在
▁apportionment
的困难
cred
rass
作出答复
▁kinds
反叛
抵消
的两个
的增长
北京行动纲要
▁describe
▁receivable
期内
的结构
而且也
ester
tiated
▁stipulates
一下
仍是
就座
▁Aud
的恐怖主义
Agenda
的那些
政府机构
▁59/2
atorium
▁autonomy
贵国
▁Iranian
/2000/40/
▁associate
▁disciplinary
激励
▁flood
reshold
▁universality
现任
布罗陀
的职责
直布罗陀
▁有与会者
巴勒斯坦问题
反恐怖主义委员会
和美国
统计局
▁Gib
▁smo
发挥的作用
development
▁demographic
vest
土著妇女
.3/55/
retion
实效
斡旋
-154
bility
government
▁witnessed
迟于
▁八
排减
连接
宣传活动
联合国儿童基金会
分开
警察局
提交人的
atization
▁Personnel
▁显然
传统知识
使其能够
▁crops
减贫战略文件
悲剧
改动
▁incorporation
养恤基金
▁aggra
seekers
少女
主持人
一次会议
▁denial
▁equipp
represented
回到
相一致
在一些
毫无疑问
大会第六十届会议
社会发展问题世界首脑会议
女生
/43
▁“2.
log
▁Mo
ping
上诉法院
▁AMIS
遗传
三年期
的前提
▁85.
通过的第
▁tragic
▁nominated
▁taxes
▁contracting
执行任务
▁hatred
越境
▁GS
来处理
▁Vin
▁Ahmed
侵犯人权行为
▁notify
▁unified
全民投票
执行情况的
斯德哥尔摩公约
▁secretariats
▁interpretative
全额
卫生和
▁25,
否认
毕业
深为
▁战略
关于禁止
提供咨询
▁1997.
esa
议程上
▁returns
▁spouses
▁managerial
Dep
arians
▁Royal
国际原子能机构
▁classification
互相
恶劣
深表
ais
▁Syria
▁plays
iencies
▁98
民主和
vironments
▁Fran
▁scourge
埃厄
日历
中美洲
使用或
unteer
▁aquif
非统
的非法
▁crimin
▁efficiently
为妇女
日的第
第二款
▁output
▁revitalization
▁(6
和评估
的协定
▁dimin
▁millennium
11,
殖民主义
▁clients
▁MINUSTAH
不懈
▁50;
联合国与
EU
侵权
▁令人
作斗争
联合国志愿人员
▁commerce
UB
所犯
▁全国
▁Rot
所有人的
残疾人的
区域和国家
资助恐怖主义
▁portion
▁Sudanese
▁perceived
▁inadmissible
NC
列于
▁debris
僵局
▁EC
蒙特雷共识
UNCTAD
▁Citizens
▁countering
ICOM
▁rebel
提出的关于
19,
▁contents
▁Acknowled
▁allocations
人权与
代表团对
(1997
▁applicant
▁coordinators
ba
▁JIU
▁pillars
▁stereotypes
▁Americas
▁saw
儿童卖淫
日在日内瓦
第三届会议
▁(2001),
▁investors
▁Governance
ATO
成功的
▁organic
她的
与协调
而采取的措施
▁exceptions
应考虑
▁bid
高等法院
ethnic
▁submits
化为
基层
用语
30/
的准则
▁cessation
时在
与和解
作为其
▁clin
专长
自从
▁97
明确规定
罗门群岛
需要采取
划分
都会
议会联盟
▁pertinent
应当在
西亚经社会
▁mutil
Ab
结社
107
MEE
▁86.
aneously
▁Documents
▁alleviation
▁1967
▁Thirty
与人权
▁contradic
▁Coordinating
将以
纲要
的国际法
采取一切必要措施
-26
▁即使
和土耳其
▁tons
不遵守
▁Free
rowing
▁Mediterranean
听到
▁本文件
中期计划
裁军和不扩散
▁Private
单证
此事
▁新的
lete
heres
东帝汶过渡当局
▁withdrawn
▁contractor
药物滥用
ether
不管
护照
环境管理
/2001/15/
▁gradually
进行讨论
的基础设施
安全理事会成员
▁assembly
追求
iri
已经开始
第三条第
和其他组织
之日起
继续向
China
▁appropriately
添加
裁减
和参与
地利用
▁eman
创伤
▁Jan
▁在这些
还注意到
amine
▁Aviation
▁wondered
三分之二
其后
eds
名单上
处以
▁islands
▁jurisprudence
形象
▁54/2
▁voted
▁indirectly
和行动
建立在
rown
▁inher
有罪不罚现象
▁Transfer
▁endorsement
▁extraordinary
为何
加深
可归
复杂的
移徙者
试条约
atu
卫生保健
▁Marine
▁environments
但没有
asure
国际商定的
▁Paper
▁deposit
对应
ael
oum
▁问题
lose
▁26,
▁88.
包括关于
竞争政策
社会和文化
▁College
优先次序
完成工作
▁book
▁goes
▁discussing
充满
▁ECA
担任主席
▁UNCDF
▁fertil
即在
▁deals
▁Challenges
界限
▁1986
▁absor
▁whatever
原先
投资者
plus
Bolivarian
és
三方
联合国大会
联合国组织
公然
城镇
▁Ow
和扩大
而且在
第一委员会
第六十二届会议
▁careful
巴勒斯坦被占领土
承包者
法律上
安全理事会的
▁robust
▁affirmed
▁Conventional
50%
----
从中
ISC
未成年
▁2.2
▁IMO
▁Groups
发行
umn
维护者
▁Emphasizing
复苏
▁est
▁advise
▁smooth
ho
之间建立
private
▁impedi
▁Inhuman
▁wherever
▁impartiality
储蓄
将要
联合国反腐败公约
▁Families
二苯
▁blo
作出的决定
▁upcoming
似宜
▁Ababa
模型
▁特派团
外勤支助
▁Resid
▁comprise
▁landmines
一支
召开了
▁sus
提供技术
▁79
为确保
和暴力
第一款
▁threshold
宣称
强加
救援
萨卡
▁技术
宣传运动
认为大会
▁José
▁shortly
用尽
▁Ach
人权文书
项目活动
年度会议
haust
▁highlights
bul
成果的
有关人员
贝巴
型观念
的各项目标
▁conversion
▁resettlement
初期
斯亚
▁GM
事务的
时间内
鼓励缔约国
▁licence
▁intensified
但却
周知
更改
有形
sic
▁discretion
FF
街头
▁(199
进一步发展
卢旺达问题国际法庭
▁adversely
默德
▁28,
▁还回顾
应考虑到
▁Gibral
▁SP
▁协助
▁报告员
入侵和占领
参看
Fin
和全球
空间技术
▁negotiate
公约第
提供协助
解释性声明
makers
感染艾滋病毒
▁utilize
DT
超越
整个国际社会
的总体
uous
▁根据第
斯亚贝巴
▁目前正在
▁volati
ectiveness
▁Presidents
8(
飞越
在其他
都没有
▁unlike
▁verify
▁exhaust
格林纳达
一般性建议
特别是通过
▁seemed
▁Haitian
消除一切形式种族歧视国际公约
ING
▁sum
作为一项
穆罕
识字
/1)
并表示
有许多
因为它们
▁diversification
接种
答辩
采取任何
活力
▁Cri
▁hosting
在全国
支持下
/199
人权领域
▁Present
▁Agricultural
án
起到
联合国秘书处
▁exposed
号决议所设委员会
乡村
Mal
SAR
▁fell
Global
▁Degrading
地的
小组的
▁meth
法制
以色列的
的进展情况
▁Method
▁harmonized
永远
直升
的重要作用
inking
▁testimony
disciplinary
萨拉
让人
震惊
▁除非
住房和
色情制品
重要的作用
▁Aboriginal
▁attributed
▁disseminating
军用
▁埃及
的成功
千年首脑会议
▁Vincent
▁looking
▁第五十九届会议
▁consolidating
不变
扶贫
非盟
不允许
我们欢迎
▁detection
暂定
fund
▁Harm
互助
产量
政策审查
亚的斯亚贝巴
▁attaches
其所
走私
阿图
180
▁财务
这一事实
enaries
▁telephone
开罗
▁IX
家长
▁87.
lamation
▁satisfied
回合
左右
被判
证券
▁87
司法和
伊斯兰教
解决方案
▁briefed
▁incumbent
主席和
在很大程度上
热带
发出的
总额为
的难民
▁perpetrated
免除
刚才
无线
了这些
穆罕默德
▁holistic
▁sponsoring
瓦努
▁目标
法外处决
常任理事国
▁proven
▁reinforced
▁contributors
UL
▁组织
军事人员
相互关联
对议程项目
▁sports
▁assured
Gu
几项
思考
营业
▁Addis
▁。
任何时候
提供财政
▁Works
▁tension
真实
航行
▁Good
专门机构和
提出的报告
▁remitt
幸的是
▁big
eries
itici
.2/55/
▁UNFCCC
▁spheres
▁Intolerance
数据的
itics
▁regulate
▁traditions
▁instruction
安南
提高其
成立一个
灾害管理
利益攸关者
▁UNDCP
▁imply
ciences
本条
妇女与
所指出
1981
(2007)
▁embod
▁hundreds
▁因为
▁Annan
▁accru
▁artic
亲属
惠益
订约
企业家
在处理
▁CAR
tw
它将
段和
食物权
Japan
▁Time
证词
friendly
▁genetic
1325(2000)
决定的
▁Pos
ested
▁Enter
▁River
▁communicate
互补
14,
gue
▁(5)
国际援助
联合国教育
▁enjoyed
▁scholars
审讯
的声明
▁Five
▁appendix
▁diversion
ni
haus
做好
初次
/5,
应该是
有限的
机制和
▁nom
▁casual
可持续发展委员会
国会
受益于
环境中
区域和全球
▁aggreg
结余
▁希望
入学率
▁57/2
▁arsen
▁detri
▁advised
后代
ACE
包括为
▁smaller
▁statutory
扫盲
ham
▁法庭
其关于
▁CST
▁该方案
努力实现
调查委员会
展示
纠纷
不断变化
aiwan
▁pages
挂钩
的解释
阿布哈
强迫失踪
转型国家
政治事务部
arming
▁Opportunities
丁斯
排除在
▁该项目
国际机构
的解决办法
▁spare
▁retirement
资金的
▁malnutrition
历史上
9/10
eless
卡尔
我们要
▁OAU
▁Rico
▁Cairo
fol
无国籍
所有各方
红十字国际
▁violate
▁expedite
▁qualifications
▁最
的指导
其他机构
vising
小武器和轻武器非法贸易
.3/
服务提供
Annex
▁Zone
一点
外联
月期间
国内立法
/59/2
armar
▁Cruel
▁recosting
▁countermeasures
收回
整套
驻科
67)
▁83
till
▁recourse
▁exercises
▁Application
7、
火箭
▁NS
▁fit
overy
▁Industry
▁aviation
▁Agreements
▁qualitative
侦查
▁Competition
多大
大批
▁HR
所述的
▁Const
▁Stressing
▁presenting
一揽子
▁人权高专办
▁audits
▁Migrant
▁thereafter
不歧视
中指出
▁mankind
延误
派驻
性别歧视
▁2005;
▁Radio
▁2002-200
抵抗
全面审查
和西班牙
▁exclude
5-
oma
解释说
▁tsunami
▁evaluating
的最终
非洲经委会
▁twelfth
名为
海底
预算中
▁fax
批准或加入
▁Altern
▁tenure
电力
和维持
,1995
licate
协商一致意见
和美利坚合众国
▁Commercial
att
三个月
▁ensures
▁cooperating
、6
不法
一直是
检察长
vene
发援框架
必须采取
进行协调
▁工作人员
▁earning
▁Eleventh
▁Gibraltar
▁da
有任何
▁30,
政府间组织和非政府组织
NP
。)
本来
论述
因为这
在同一
▁Acad
▁marketing
▁procuring
动荡
▁showing
依照第
农村发展
▁render
▁kilomet
▁employee
▁threaten
氟氯
现况
str
祝贺你
▁2010.
athered
▁transformation
向前
和监督
▁oppos
▁incite
了该
刑警
部件
的传统
▁29,
child
定期报告中
▁Negoti
▁contem
▁possibly
▁sexually
专利
逻辑
▁表示
mo
奥斯
58/
问题时
▁1.2
宣读
波动
考察
对我们
类型的
▁airport
▁议
essor
▁wife
▁front
联合国各机构
▁(2004).
▁Specific
意志
khaz
▁contingency
条件下
国际盟约
产妇死亡率
促进两性平等
▁promulg
▁Atlantic
▁strive
▁predecess
▁originally
得起
被捕
多边环境
imension
▁prolong
分娩
);(
▁wind
▁Recent
▁appealed
▁engineering
大气
在关于
物质的
▁slum
▁collecting
NG
扣押
内政部
nesty
right
第五十九届会议
▁himself
▁programmatic
上学
jections
▁Grenada
▁friends
▁certificates
慈善
olic
仍然存在
安理会议
工作报告
主要委员会
▁earth
▁disturb
▁cit
合作伙伴关系
所取得的进展
列出了
pur
第二条
进行对话
个一般事务
▁leads
▁avoiding
▁exceeding
和虐待
▁descent
▁architecture
警告
适宜
阿鲁
iagn
债务减免
款的规定
▁pressing
▁mutilation
nce
先生的
▁Mean
▁borne
▁weight
附带
▁提高
和通过
▁缔约方
权利宣言
/62/2
▁fewer
▁Registry
▁attending
拆除
损坏
该司
日的信
的工作组
职司委员会
越来越多的
大会第五十五届会议
年关于
所规定
▁fine
▁dangers
,4
文森
无需
128
orian
联合国国际
▁Liberation
▁practitioners
当作
较少
措施来
少年司法
通过的关于
▁unnecess
▁concentrated
区内
重计
教育部
▁Holy
▁restra
▁Bal
在伊拉克
在安理会
自愿捐助
▁intent
贸易和发展理事会
▁Reconciliation
草拟
...]
parts
▁miscon
达尔富尔混合行动
救济和
的文件分发为荷
.4/2005/
▁proclaim
eh
核动力
▁insp
▁infring
▁guaranteeing
充当
参数
法官的
▁ICCD
▁magn
残疾人权利
▁carriage
RT
▁相反
中得到
十周年
阿布哈兹
throp
作出的承诺
▁spoke
inguistic
▁eventually
▁chairmanship
年会
全球性
提交关于
通过了第
▁opium
▁capture
▁hearings
使人们
产生影响
国家联盟
tedly
▁Library
▁popular
序言部分
UNICEF
gericht
▁Yearbook
都将
ila
草案的
credit
rorist
▁playing
联合国预防犯罪和刑事司法
▁militias
甄选
基本原则
担保权的
紧张局势
▁accommodate
▁;
克拉
104
登记的
▁为此目的
房舍
总部举行
生活条件
环境与发展
和为
122
会员国在
特派团经费的筹措
▁确定
应采取
▁他指出
瓦努阿图
▁uncon
▁violating
▁accelerated
很好
/4,
全面和
Aust
opol
▁earmar
工人的
独立国家
会前
oul
zen
联科行动
代表团团长
defence
儿童权利委员会
▁abortion
▁multinational
台湾
队伍
的这一
arts
alian
▁globally
通过第
▁89.
▁hence
▁collectively
基督教
民航
的指标
▁决定将
国际法庭
拉加经委会
▁Cabinet
反馈
的第四
▁Lus
▁执行主任
制定和执行
政府间机构
RS
.5/
rez
奖学金
继续对
just
坚决支持
年联合国
urric
jective
介入
暴行
部委
加强与
▁并
向秘书处
土著社区
tious
▁主席先生
国际义务
解决争端
▁militia
申报
bat
▁84
▁AU
的公共
保护人权
健康保险
▁1.15
anuatu
▁abduc
▁Ageing
信用
挑选
▁printed
圣文森
方面取得进展
关岛
承担责任
的目标和
het
有联系
▁1267
▁strike
信中
之所以
这两项
ilty
▁Counsel
▁satisfy
通行
边缘化
以及有关
和人道主义
▁Ensure
▁underlines
在议程项目
集会
维也纳公约
▁gathered
发病
均可
▁1:
小规模
起诉应对
▁(2000),
联合国维持和平行动
▁investigated
使用了
反洗钱
非法药物
国际人权文书
▁frequent
▁alleviate
▁cargo
▁inconsistent
▁confidentiality
uz
▁使
故意
里程
ILO
中没有
/62/1
▁genital
▁separated
地图
更具
走向
和一个
科科长
sized
举行的会议
埃厄特派团
▁Grenad
▁stressing
-13
名妇女
▁黎巴嫩
向会员国
using
发挥重要作用
iscriminate
改革和
该小组
Thousands
刺激
将近
良心
ofi
很可能
尽量减少
见上文第
相称
73)
UMAN
培训课程
▁bureau
▁holders
期的
筹资框架
▁compound
▁measured
但无
提供信息
▁patrol
性剥削和性虐待
▁Regular
▁ordered
▁Grenadines
▁specialists
Imp
1984
扶持
民政
连同
porters
就需要
召开一次
及政治权利
▁holds
▁sport
经济社会委员会
▁nationally
为由
原始
将从
无论是
▁Now
以及国际
极端主义
诉讼程序
▁mobile
▁Promote
▁refusal
▁surrounding
MIN
▁任命
▁prohibits
派出
登记处
部长会议
▁acceding
了解到
但我们
的可能
▁unc
which
他对
ona
成员和
▁acute
12)963-
▁arrived
/2003/40/
▁gathering
伊拉克政府
▁privileges
▁Additionally
▁105
向理事会
所面临的
▁Taiwan
▁decree
▁excess
▁秘书处的说明
微型
生殖器
贫民窟
-4)
和贩运
▁Green
▁exact
▁accessibility
稳定和
▁disappearance
机密
罚款
produc
可持续森林管理
文献
/37
日秘书长
▁spouse
维护国际和平与安全
▁commenced
命运
必须以
▁Hon
向发展中国家
艰难
▁背景
估计为
▁stating
▁explosives
报复
肇事
▁见第
委员会秘书
▁Attor
▁tests
ensation
▁investigative
中立
西部
▁瑞士
养老金
和能力
▁4.1
多样性的
letin
联海稳定团
国家信息通报
追回
不足以
和歧视
whel
▁ESC
确保所有
所做的工作
125
禁试条约
重要意义
政府和人民
格林纳丁斯
▁feature
▁visiting
▁出席
协定的
支付的
设施的
▁90.
未经表决通过了
▁thanked
▁illiteracy
看出
-27
中关于
在国内
资产的
▁Solid
▁第五十五届会议
▁Domestic
▁multilateralism
250
也就是
重计费用
▁Future
▁预期
viol
opted
uated
正在进行的
种群
与环境
更好的
特定的
两年期内
具体行动
▁acknowledges
周转
转向
eri
地区和
破产法
▁merg
▁guilty
欧洲安全与合作
▁tracking
▁marginalization
还对
财产的
▁$1.
国家政府
知情同意
的项目列入
代办
切割
还建议
联利特派团
▁roads
▁microfinance
媒介
▁1982
Ex
KP
▁承认
将成为
稳定的
▁Lusaka
▁racist
禁止酷刑和其他残忍
托管
licop
▁chec
▁lawyer
▁locally
但也
危险的
罗姆人
▁91.
资金来源
分发给
收入的
▁Dam
▁scienti
更高
临时措施
▁unpaid
▁placement
即决
和平文化
恐怖行为
▁deport
▁negotiable
免于
una
国家间
的前景
/《
只对
实况
所面临
▁reun
▁twice
▁persistence
103
▁(5
1267
补救措施
▁recl
▁overwhel
▁respecting
▁participant
尤为
这笔
保护的
应该在
▁helicop
▁exercising
▁interviews
卢萨卡
▁kid
▁pup
arab
圣文森特和
▁Abkhaz
▁Christian
▁partially
▁friendly
25,
和会议
的持续
ounce
▁ruling
▁politici
▁confirmation
UF
可疑
20%
以此作为
▁Whole
▁Thirdly
政体
和提供
坚定地
性虐待
统计资料
▁measurement
促进了
.12/
必须继续
▁Hall
▁1996.
▁Tourism
▁Ce
和非洲
etus
▁Mac
▁investigating
________________
eu
迎接
退出
是我们
着眼于
设备和
麻委会
▁27,
▁roll
▁infection
▁institutes
▁preference
接着
▁开发署
▁curb
自然资源的
itiously
▁disseminated
并经
并得到
目前在
▁pour
▁broadly
▁missile
▁moratorium
携带
各部门
ading
comings
ortions
MD
azi
生产力
长时间
问题纳入
▁Threat
▁formula
▁feedback
北方
无人
实体的
最近在
统计司
▁Kofi
化学品管理
▁compli
列明
力度
我请
计划在
执行工作
▁Steering
外来
司法机关
▁grass
▁brother
波恩
▁每个
反措施
甲基溴
者提供
多边主义
提出关于
进行一次
▁exemption
涉嫌
还为
管理层
▁Vanuatu
一场
热烈
een
▁亚洲
▁operated
▁confiscation
次主要
空间法
▁reflection
▁增编
from
tite
缔约国根据
We
与该
地说
公民及政治权利
formance
圣文森特和格林纳丁斯
▁restitution
下次
海岸
主权和
▁利用
贫穷和
全力支持
▁UNMEE
▁breaches
▁returnees
▁Integration
ori
所罗门群岛
▁UNTAET
▁coercive
▁prerequisite
下来
划拨
秘书处在
▁contrast
▁parental
借口
瓦卢
迫害
不应当
使它们
国际上
是如何
iers
umping
▁traged
▁condemns
▁perpetrator
冲击
Ass
第三章
▁Manual
unication
MS
违法
ont
特别是对
▁revers
▁allowances
▁receivables
123
▁这类
▁Maj
所涉期间
结构调整
▁roster
公立
中所占
的若干
▁Mis
平等机会
有关的活动
▁executed
及相关
的反应
许多人
amed
artet
▁2000:
▁advocate
list
过境运输
▁acted
▁evaluated
儿童兵
显示出
▁mem
▁phys
OE
▁id
的国际文书
▁Material
出入
海运
中心和
▁Stockp
▁苏丹
▁行动
▁Men
▁Bonn
布雷顿森林机构
联合国人类住区
(5
孤立
想要
enc
一开始
iture
▁92.
▁Guam
▁白俄罗斯
ki
安盟
打破
的新的
还可以
特许
/42
充分支持
筹备会议
通过了一项
▁Ordinance
▁challenging
众所
居留
未缴
检测
并吁请
发展问题
大会关于
预算编制
olved
▁世界银行
▁Organisation
缩短
遵约
在审议
▁250
▁其他事项
▁ballot
▁Conservation
ano
和援助
的关注
docu
orge
结论意见
.1/56/
▁ESCWA
联合国系统各组织
▁Approach
▁emphasizing
的合同
▁kilometres
方案规划
▁Liaison
▁Chambers
节约
ISP
TER
的人力资源
朝着
adi
就如何
有益的
南部非洲
▁Super
▁expeditiously
等于
随函
》/《
局势中
▁1949
▁1987
▁reject
▁documented
▁shortcomings
▁上
译文
大陆架
负责的
▁hards
东帝汶支助团
▁notified
大会第五十六届会议
aya
vement
▁virtue
▁finalize
▁segments
▁consulted
,”
号法
赫勒
17)
的角度
eded
/59/1
▁stabil
▁admission
MOP
umes
▁Recommends
▁马
▁CEB
仇外心理和相关的
▁reconsid
注销
聘用
它们对
收入和
等其他
ghts
lets
社会福利
▁remark
▁ethical
▁placing
',
收费
危险废物
征得安理会
▁Virgin
tif
▁82
▁(2006),
▁appropriations
通用
▁弃权
不平衡
性骚扰
持续不断
▁在此方面
▁印度尼西亚
▁特别代表
签署和批准
▁alter
▁helpful
El
)、(
▁86
东南欧
另一些
裁军审议
▁mist
大会议事规则
▁Should
▁Abstaining
▁developmental
的理解
▁academ
▁oversee
▁equipped
维持国际和平与安全
▁breakdown
密集
反对派
60/1
非统组织
直接或间接
organization
ji
住宅
102
的有关规定
▁emergence
并已
的合法
的权力
date
其他成员
并继续
▁Prep
partite
公私
78)
少数族裔
▁Here
组织的合作
▁counterparts
将有
中提出的
▁radiation
小岛屿发展中国家可持续发展
folio
促进可持续发展
▁Quartet
▁Request
resolutions
▁delivering
▁succession
加倍
对本
▁增加
和实现
执行这些
发达国家和
▁sevent
▁Xenophobia
两位
大臣
兵役
▁HUMAN
严厉
刑罚
远程
▁GC
民主的
▁revisions
几次
行使其
土地退化
的经验教训
▁accomplished
代替
阶段的
▁37,
不断增加
监测和评估
对他
▁evic
开展国际合作
HG
加利
预防措施
▁在这一方面
jectives
▁采取
不属于
不需要
WC
也要
和挑战
▁Forty
▁Korean
▁controlling
▁uncertainty
递交
▁precon
▁Consolid
▁footnote
即便
▁来自
▁Number
四方
应通过
就决议草案
安理会暂行议事规则第
巴赫
相似
科菲
和研究
▁全球化
会议室举行
▁enemy
▁filled
ye
rie
法律顾问
/59/5
▁Mohamed
LM
▁若
推迟到
和谐
ients
▁stood
在为
的多
对他们
里程碑
各项目标
▁unemployed
▁mercenaries
uru
共同国家
建议大会
在这方面的
提供人道主义援助
德班宣言和行动纲领
engagement
引发
文章
一般临时
,1997
赋予妇女权力
▁limiting
▁conceptual
分组
▁评价
口头订正
国家行动计划
▁individually
▁被
办理
裁判
▁MO
密克罗
生活津贴
3,000
的基本原则
▁abide
人力资源管理厅
三届
括号
无关
领事
▁第十
众所周知
和国际法
▁enlar
▁第六十届会议
▁accreditation
▁Nag
空间碎片
号一般性意见
第六十届会议
▁deliberate
At
的第一次
▁phot
▁signs
De
之害
所用
▁AP
、15
相应的
▁Disp
核动力源
联发援框架
▁rental
▁receives
/68
▁89
家庭的
本次会议
ville
▁61/2
和能力建设
委员会在其
▁Plaza
▁环境
第七章
▁Fel
-2008
▁intend
▁classified
前进
职员
鉴定
▁“[
antly
▁brac
第五十五届会议
南北
成长
▁审计
和建立
的武器
第三国
▁argument
有意
Net
SGB
▁在该
ette
每个国家
risis
的国际公约
▁Plenary
6%
前面
也可能
的例子
领域中的
国际组织和
▁2004;
天的
简介
参加者
的独立
lows
中部非洲
提出意见
最低限度
▁在同一次会议上
▁motivated
▁distinguished
▁ER
▁dil
▁主席说
以便能够
共和国政府
▁indebted
”).
▁CP
向他们
issu
/60/3
▁client
▁endorse
▁attitude
▁immunities
18,
在实施
提交大会
▁anim
owards
▁arm
▁divide
人权事务委员会
▁Mohammed
SD
▁所以
办法是
:1(2
▁gun
▁环境署
结合起来
禁止化学武器
▁illness
成熟
208
保护和促进
发展援助框架
ighbour
它是
▁93
在没有
的问题是
0,
保卫
126
▁92
包容性
大湖区
建筑物
性发言
犯罪的
的议程
Euro
▁Tar
加强合作
提供经费
进一步执行
▁diagn
应按照
易受伤害
第五十八届会议
▁marriages
▁93.
▁quota
▁References
波黑
军事和
在日内瓦
方案和协调委员会
▁analysed
20.
有效性
跨国界
▁died
事务司
警察和
进行审议
▁veto
大会特别会议
▁Conclusion
BP
▁说明
▁Balk
▁Sche
▁迄今为止
▁Attorney
▁licensing
他认为
进行表决
/59/4
▁Marshall
▁cancellation
;《
农场
-2,
情形下
public
▁meets
▁Prison
programmes
mi
访问团
人权条约
的非政府组织
▁2000-200
Sp
但有
初等
并入
inf
▁基于
以阿拉伯
/30
所需要的
提供资助
欧洲人权
ludes
.4/2004
▁unequiv
前的
密克罗尼西亚
▁clauses
▁punished
▁南非
及其后
中央银行
继续开展
这些权利
trine
未经表决获得通过
承付
▁gradu
▁payable
▁deferred
星期内
▁Mind
维持和平部队
▁probably
▁weaknesses
再度
急剧
整合
简短
医疗服务
rators
▁hazards
▁signatories
▁Stabilization
▁concentration
▁installations
可预测
应当是
区域和分区域
▁gradual
本决议的执行情况
▁industrialized
偷运
▁联合
核可了
犯罪和
两年期的
iracy
外地特派团
.2/62/
▁Applications
而对
避难
-22
公正的
uction
呼吁国际社会
▁devastating
劫持
应有的
还要求
▁rout
gorous
ogenic
sector
▁departure
那时
10%
oca
▁实施
和个人
的道路
urch
▁affili
▁impetus
▁concludes
▁structured
预备
处理的
esia
cides
埃塞俄比亚和
无核武器国家
▁overcoming
多人
抢劫
所需要
▁humankind
RE
将此
相符
▁该国
包括有关
欧洲经委会
▁mixed
▁prohibiting
和水
开列
他们对
▁magnitude
联体
▁一旦
先生在
区域间
因为在
得到的
ardo
▁weaken
▁录
等人
▁era
提供适当
根据大会第
▁Hence
▁concur
Kh
法人
car
teor
加强努力
全面禁试条约
▁flight
▁properties
▁荷兰
▁论坛
行为和
idity
▁usual
▁harmony
▁compatible
▁未
14(
无条件
▁Road
▁tail
发展与和平
▁Others
联合国海洋法公约
版本
绍尔
ono
held
▁一些代表团
宏观经济政策
颁布了
▁Ren
▁MISC
建立了一个
▁surviv
BM
妥协
本地
和影响
是实现
独联体
▁土耳其
▁这就是
电子通信
▁visible
的核
Coun
▁94.
财政年度
妇女发展基金
▁married
▁precursors
出来
和生产
prof
akeholder
▁standardized
安全部队
▁工发组织
▁2000)
接待
ropic
▁ecological
▁在其
加共体
aper
业务费用
保障措施
高度重视
▁我们相信
议程项目下
▁Landlocked
▁Facilitator
平等权利
委员会第三十
▁Accounts
到达
80%
▁“3.
提交的关于
得出的
集中于
作为一种
▁consequently
展览
天然气
的普遍
riage
第五届会议
urable
▁linking
的特殊
公共服务
▁surplus
西非国家经济共同体
▁harmonize
▁Objectives
4:
纳斯
与贸易
liest
进一步努力
移徙工人及其
中华
更有效
社会中
指出的是
▁owed
yo
月初
dad
森林问题
专题讨论会
通过了关于
Russian
▁lowest
MC
不必
▁huge
quality
▁attempted
▁responsive
信函
代理人
▁新西兰
▁told
大多
益处
所要求
被指控
vated
▁NATO
境外
条中
电脑
绍尔群岛
外勤支助部
▁translate
撤消
▁“1
▁难民署
raction
▁Minorities
动用
年将
bor
、16
可用于
▁新闻部
▁inspections
▁demonstration
卜拉
恐惧
领土内
berg
Human
▁Italian
Chairperson
▁introductory
叙述
所未
艰巨
冲突和
▁intra
▁detect
实质内容
▁apart
▁Professor
不分
提供实质性
▁Tuvalu
▁prosecutor
(6
幅度
某项
限期
金伯利
买卖儿童
前南问题国际法庭
▁Collabor
▁misconduct
▁inventories
是要
和尊重
得多
诊断
ini
名儿童
希望在
移交给
▁Kab
执法人员
2,000
▁generating
vii
总额的
上诉分庭
保护所有
可能导致
▁kidn
▁ment
otropic
▁unnecessary
不相同
废料
拘押
是从
▁(8
▁los
/62/3
▁speech
▁pensions
严重违反国际人道主义法行为负责
pay
专门讨论
行政部门
ething
▁Brief
内陆发展中国家
esterday
附件一所列缔约方
▁因
不明
yah
扩大了
▁fired
Governmental
就该
日程
流程
▁Sm
资料和
tici
进行磋商
▁wars
▁.
Fed
购置款
和平目的
提出上诉
France
▁pharm
▁Instru
▁adapted
分项
109
▁来文
编制的
过境点
选举委员会
▁immigrants
▁continuously
开始时
积极地
境内流离失所
儿童与武装冲突
▁Meanwhile
▁depositary
▁prosecuted
aux
tex
urg
▁Ki
年之前
运输和
▁Indi
非常重要的
▁Estim
▁Ivorian
▁Commander
▁Improving
丧生
sust
人的权利
▁brings
je
弹道
和重新
将收到
我国的
是妇女
▁workforce
事件的
科学家
都可以
强烈谴责
/55/2
土著问题常设论坛
▁reserved
解放军
严重影响
▁ICTY
appropriate
拉特
生物技术
所采取的措施
/2002/30/
▁fifteenth
▁relocation
3:
sa
七个
架构
▁2:
人反对
/55/3
进一步审议
ashion
▁condol
▁desired
▁Original
外包
汇总
租金
着重于
重申其
饮用水
秘书处和
必不可少的
/1999/2
熟悉
.39
dri
anks
amble
▁各项更正
执行理事会
▁UNAMID
▁messages
学员
小册
.32
▁96
的贸易
采购实体
哈迈
德先生
条之二
该机构
领导的
如果没有
按照大会
▁analysing
估价
格莱
▁经过
宣布开会
统一组织
▁shif
▁巴勒斯坦
▁pupils
titative
▁Address
应向
WHO
▁117
trial
委员会注意
载入
继续为
资料的
专家组会议
作战
应于
时在第
相对于
▁Pau
严重威胁
▁confront
mn
兴奋
.36
并认为
▁roc
的一个主要
▁Mines
▁Missions
▁Presidential
条规则
的国内
有些国家
目前为止
入侵和占领科威特
▁politics
ped
复杂性
协调机制
▁Auditor
号决议所设委员会主席
教会
▁Met
ectivity
07
基伍
endas
▁cere
▁(1995
▁Arrange
1,000
azard
▁科技咨询机构
是否可以认为大会
患者
被控
▁结论
和承诺
的民主
的选择
编写一份
领导作用
但无表决权
▁enrich
▁shortf
枪支
.35
pin
qui
▁Lo
适当地
▁60/2
▁Gulf
▁solve
▁declining
▁81
以保证
希族塞人
▁halt
liaments
▁Compact
▁routine
▁fil
机会均等
▁catal
iration
siveness
一致的
年第一
研究金
综合管理
、28
▁lod
方面的问题
▁simultaneously
修复
的效力
以及通过
尤其如此
/1996
ressed
▁第二委员会
▁Resident
农产品
自愿基金
▁刚果民主共和国
▁punishable
▁Responsibility
▁(9
各成员
指导意见
▁births
▁earliest
YP
仪式
浓度
政治进程
将不
群体的
bery
aught
国际商定的发展目标
▁Partnerships
即可
铁路
▁94
与此同时
▁把
并把
▁dé
以减少
对这种
小册子
犯下的
主管机构
消耗臭氧
非正式会议
▁speedy
▁defines
▁regulating
增列
引入
政府已
有兴趣
阿拉伯文
eness
▁UNDAF
▁aside
▁bridge
▁isolation
▁tuberculosis
))。
的申请
▁mere
▁Stockpiling
定稿
和评价
▁附件一
的各个方面
的行动计划
▁SAICM
▁Swiss
▁worst
▁boundaries
天主教
并确定
的评论
公民社会
相关决议
日内瓦公约
特别是关于
▁night
▁Export
▁adhere
▁Providing
联合国气候变化框架公约
人群
工艺
陆地
开始审议
(2008)
ecutives
▁everything
▁于
XXI
▁91
工作量
罪行的
thes
正式文件
break
▁Rober
▁plants
▁Investigation
03
8%
费率
30%
在该国
▁98.
Adopted
▁indict
▁Immigration
▁eligibility
地震
艾哈迈
极为重要
/17),
的各项活动
▁varied
▁adjourn
得知
voc
▁95.
后勤支助
本议定书
/05
▁布隆迪
冲突各方
ching
工发组织的
Special
▁revise
▁Actions
向你
并为此
立法和
还强调
▁我请
原籍国
效力的
月开始
风险管理
▁本次级方案
▁listing
▁sending
项目和
usha
委员会报告
Bra
ann
也需要
可转让
risk
▁附件二
尽一切努力
▁Accounting
偿付
包括其
▁2.3
特别法庭
的条件下
▁comprised
出缺
较小
even
▁Key
author
▁委员会还建议
▁100,000
▁fashion
交叉
创立
所致
据此
族群
降至
鸿沟
协商进程
ifies
▁coex
itably
dimension
▁accidents
实用
招标
50,
▁$6
与有关
armed
▁请将本函
的巴勒斯坦
高级别部分
▁Immun
▁Convinced
▁undermined
ré
之上
教廷
施行
▁peer
arching
▁overwhelming
飓风
▁儿童
并决定
新闻稿
erge
▁milit
▁alternate
▁navigation
出庭
半数
四十
时机
汲取
Pal
bly
due
显示了
的损失
中的一个
小组成员
▁Extra
▁false
国际金融机构
▁Market
▁Ak
成果文件
负责执行
委员会决定
转达
▁据称
巴尔干
还认为
▁doctrine
娱乐
所能
每次
判决书
联苏特派团
▁Achie
▁(2005),
▁arrival
▁interrelated
▁streamlining
ICC
政府为
运载工具
▁derog
▁react
▁Argentine
款和
UNO
体现了
防治艾滋病毒
▁constantly
偏远
提及的
▁ICP
以阿拉伯语发言
▁CARICOM
▁stimulate
利斯
特权和
akar
占领国以色列
AMI
最贫穷
▁spok
▁一些国家
观察员地位
▁inability
forestation
▁preserving
卢旺达问题国际刑事法庭
,5
操守
新生
▁blood
实现这一目标
冲突中
hand
这些文书
▁2015
▁Micron
仇外心理和有关
至少有
▁$10
▁96.
实施情况
的信息和
ISPACE
ranches
▁kindly
强行
沉重
▁Tri
安全局势
ordin
▁invoked
▁substitute
▁eradicating
看待
增加对
并帮助
▁rad
▁destabil
unci
▁ICTR
▁adding
▁divorce
▁affirmative
▁traditionally
lists
atibility
创业
▁拟议
设施和
协商会议
field
▁Hand
▁大会决议
▁plural
▁Policies
▁relatives
公营
的身份
重点领域
▁clarity
▁condolences
形态
.51
3.3
▁TR
1970
灭绝种族罪
▁expense
▁ranging
上次
isk
▁3.2
combat
▁infected
Rapporteur
▁Insurance
▁competencies
中断
arer
和可持续
.5/59/
▁Abdul
席就座
▁请说明
▁近年来
的临时议程
儿童卖淫和儿童
大会第六十一届会议
▁occurring
▁something
dimensional
年内
-25
bas
个人或
和问题
的日期
弹道导弹
执法机构
corruption
▁valuation
▁predecessor
▁无
平方
要么
mal
▁steady
地址
日前
水准
尽全力
roots
▁HIPC
各种形式的
▁portfolio
隐私
执行了
保持一致
▁officially
员和
将作为
SION
加强国家
履行职责
消除种族歧视
▁Reference
系数
集束
也不能
新闻界
asts
▁Has
办事处的
多边条约
▁bott
和安全理事会
▁chapters
▁reaffirming
她们的
▁fate
方面的进展
▁missiles
▁Compensation
新月
Bel
的中心
▁113
▁Clear
.4/2005
▁positively
▁tempor
▁agendas
▁profits
▁designing
抵达
▁2006;
▁Crimes
▁medicines
▁contingents
▁politically
我在
淘汰
110
和提高
▁rou
地方一级
ternoon
▁domain
▁budgeted
审评委
/53/
▁Tenth
创新的
财务条例
▁哥伦比亚
成立了一个
▁video
加重
早些时候
▁CRIC
▁Comments
▁releases
产值
性地
5%。
▁摩洛哥
制订一项
纳入主流
▁councils
▁distance
▁quantities
撰文
驱动
实现了
的索赔
国际安全
基本权利
的发展中国家
▁certified
▁notwithstanding
不人道或有辱人格的待遇或处罚公约
奴隶制
▁IDP
▁Mag
生活水平
违反国际法
▁adver
▁recur
在发展中国家
美洲国家组织
African
▁repair
次会议上审议了
▁lending
▁inception
▁liquidation
兴奋剂
的水平
以及促进
第四届会议
▁newsp
▁Recalls
具有法律约束力的
空运
的途径
▁Ext
roller
▁delete
ensurate
▁surface
▁addendum
otechnology
不满
为支持
和世界
owered
▁assass
次会议简要记录
▁Likewise
▁amending
▁+
协助各国
经济活动
▁Diplom
昨天
编入
任务是
▁97.
、2000
▁alien
▁dischar
但仍
不仅是
印度洋
必要性
所做的
最后报告
wegian
给秘书长的信
防治荒漠化公约
fficiency
▁Individual
已得到
发表声明
▁interf
行政首长协调会
▁aligned
▁earnings
▁complemented
LIS
spe
检查站
目前正
打击腐败
▁restrict
还可
不确定
▁奥地利
工作方案的
▁美利坚合众国
▁infrastruct
▁quantitative
▁段
体罚
木图
要做
国防部
▁意识到
▁CTBT
发展方面的
人力资源开发
▁lacking
大会第六十二届会议
两份
▁street
▁warrant
▁linguistic
how
的条约
▁代表团
多年筹资框架
种族灭绝和其他
辍学
▁ECE
▁菲律宾
的国家的
points
常见
仅限于
Council
▁corner
▁damaged
▁accredited
▁fourteenth
、37
习惯法
的人类
每周
cow
发出了
公开辩论
hentic
▁ethics
▁frequency
▁stateless
先例
开列的
▁(15
▁wan
其中一些
表示遗憾
阿拉木图
技术合作活动
▁Compliance
▁indicative
人被
的通过
达成了
创造条件
环境保护
▁cope
▁faces
▁Micronesia
;]
精确
、47
旨在促进
用于支付
和技术合作
▁chance
▁supplier
▁circulation
发会议
达到了
/23),
▁News
▁rough
▁phased
▁(1999),
▁settled
▁Liberian
stakeholder
▁disappearances
替换
在经济
严重侵犯
管辖范围
leting
cel
uma
、18
承诺期
环境问题
财政援助
/55/1
▁Langu
ribution
暴力侵害妇女行为
的海
▁此种
刑事诉讼法
▁2010,
▁choices
▁slightly
▁paramount
出境
肇事者
pper
▁Kit
分配数量
改革进程
▁Paulo
ferential
▁shipping
▁Combating
上面
运营
英文本
计划中
▁Will
法律事务厅
utical
联合国工作人员
▁Organic
▁explored
供其
辅导
学术界
比以往
中期审查
对决议草案
terdam
▁branches
▁Registration
科学研究
号决议附件
▁1995.
▁决议
▁忆及
编写了
mand
人员的安全
方案和项目
消除核武器
.2/56/
▁towns
▁Province
炸弹
协商后
支持在
▁POP
▁Substances
far
以及各
限制了
▁2.5
▁ECL
红十字国际委员会
大赦
▁一名
▁Eight
▁Income
▁拉丁美洲和加勒比
▁rejection
受过
new
可能在
dens
look
议会选举
第一次会议
加强国际合作
▁admitted
▁2006-2007.
巴厘
西撒
和意见
无线电
texts
▁Abdel
▁argues
特丹
和恢复
总部和
的根本
鹿特丹
▁Communities
NL
分别于
都需要
▁vig
中小型企业
权利和自由
▁Unless
就能
不安全
明显的
销毁此种
▁sharp
提供咨询意见
▁audited
▁inherit
▁exceeded
▁commensurate
为重点
领导下
▁Sil
中东局势
cessing
▁Adopted
▁proceeded
联合国难民事务高级专员办事处
使人
和转让
▁son
▁van
人口普查
气候公约
针对性的
▁Verb
▁occurs
问卷
129
年妇女
新技术
规则和
见下文第
▁Japanese
多方
分之一
安理会第
▁Paul
并不意味着
▁poses
▁breast
▁1998-1999
所称
另一国
的学生
荣幸地
▁nur
会议服务
books
▁imposing
不大
住在
并考虑
现阶段
▁Hig
▁Kiv
越来越多地
▁freeze
▁casualties
借助
▁防止
、30
方案支助
主席在
使妇女
▁Far
所属装备
作为联合国
这些问题的
▁Import
▁recruit
▁正
增订
代表说
员额的
结核病
、2004
▁draws
▁patients
▁负责
加入为
核定的
状况的
▁brom
政策和战略
▁owners
方面所取得的进展
合办
对实现
维尔京
成果管理
erion
▁Poor
▁aiming
干扰
所定
记得
.5,
Min
调查团
非洲和
▁Kin
情况介绍
段规定的
重要问题
多边环境协定
▁privacy
无须
维斯
综合性
▁58/1
▁somew
约翰内斯堡执行计划
▁XX
另一项
调解人
消极影响
▁Subject
▁monitors
▁arguments
COS
该文件
国家报告
这些挑战
重大贡献
atellites
▁preferred
怎样
▁贸易
中使用
赔偿额
58/1
cion
▁选举主席团成员
▁omission
▁Notwithstanding
宽容
带有
▁pi
▁先生
▁Provide
aceutical
▁signatory
▁appreciates
的确
、13
的历史
▁grade
▁protective
▁usefulness
▁协调
的稳定
采取适当措施
▁respects
/6,
aki
maty
关于儿童
检查专员
▁Sant
之间的协调
▁agent
▁Mindful
▁crossing
▁Fisheries
牺牲
▁后来
常规武器公约
▁factual
▁nominations
合理化
CERD
▁depth
▁inflic
oubtedly
▁synergy
本会议
生活的
被害人
保护措施
生物武器
▁Date
▁confer
ficiency
▁十
天内
为所有
其中有
的临时
▁assault
▁laundering
宪政
▁参与
直升机
货物的
▁我们在
安全保障
行政管理
▁remittances
或与
完整性
因为他们
▁马来西亚
安全部门改革
缔约方大会第
▁lawful
untarily
▁Swedish
▁creative
▁ambitious
▁realizing
引进
干预措施
所通过的
▁ages
关注的问题
咨商地位的
▁定
悲惨
▁SC
并按照
相同的
▁Gal
▁lived
▁devote
▁famili
▁fiftieth
向该
▁设立
、17
▁brut
科索沃临时
▁Transit
▁deposited
▁Discussion
合物
47;
▁116
公共政策
进行研究
▁Brazilian
▁corrected
▁Institutional
插入
或限制
,2009
rahim
马绍尔群岛
stanbul
▁irrever
▁Verbatim
▁Rotterdam
此一
起因
不影响
二苯醚
可靠的
可否受理
▁audi
.3)
▁OP
无害环境
▁books
号决议规定的
▁passage
▁supplied
▁Norwegian
▁conscience
▁automatically
美好
.33
▁司法
主管部门
支助预算
的提案国
▁2004)
刑警组织
对儿童的
▁塞拉利昂
一届会议上
▁highlighting
纳入其
停火协定
宪法法院
▁evac
▁Serbs
▁adolescent
三十
延续
朋友
▁使用
发展政策
这些组织
这项建议
▁Bali
▁timing
基于性别的暴力
▁classes
▁criterion
救助
是最
验证
***
卡拉巴赫
french
▁colour
▁plight
诊所
倾向于
对古巴
通过在
▁quot
以协商一致
▁Option
pa
兑现
参见
革新
▁一位
委员会应
紧急呼吁
▁Cour
▁wanted
▁thinking
Ec
cl
由其
kel
▁尤其是
国际经济
所要求的
取得的成果
▁conditional
或非
必须有
执行其
aker
▁(14
▁100.
▁display
▁exploring
列有
解雇
图瓦卢
▁settle
毒素
演讲
这就
的根源
onga
▁Tru
▁我们对
▁sick
举行了一次
▁第三委员会
▁completing
PO
.34
▁114
▁讲习班
努力确保
提供充分
选举进程
问题的认识
▁verif
▁modest
▁awaiting
系指
而定
足额
和更正
起案件
维尔京群岛
▁Almaty
▁exhaus
▁coordinates
行为体
所有成员
红十字会
ample
▁阿尔巴尼亚
▁Academy
所涉方案预算问题
▁Enhancing
▁promulgated
俱乐
基因
rad
、29
生产的
abed
强迫劳动
▁Direc
▁panels
▁安
二十
CPR
合作框架
工作组的
强调需要
必要步骤
▁ECLAC
▁falls
劳动法
▁vent
▁难民专员办事处
.)
04
和处理
实践中
管理人
STRA
▁Pay
最低工资
观察员部队
重计费用前
的一个组成部分
▁foremost
▁fertility
▁autonomous
特先生
▁西班牙
全球机制
基本服务
女性生殖器
岗位
▁家庭
临时代办
/1995
▁第六十二届会议
问题以及
▁briefly
▁exemptions
附有
发表意见
有关报告
support
▁profit
▁avoided
何时
数以
新兴
联大
必须对
outs
的第一个
鱼类种群
发表的声明
问题特别顾问
▁extrad
▁clearing
▁advocated
▁Solidarity
▁projections
不多
本法院
独立和
▁IPCC
▁hinder
▁renewal
区和
或被
124
条约法
▁99.
小组讨论
▁Restric
▁predomin
▁abduction
清偿
储备金
▁sin
日期间的
▁Cher
▁inev
ificant
▁periodically
▁在这
并促请
的原则和
ovals
▁save
世界首脑会议
感到遗憾的是
近东巴勒斯坦难民
▁afternoon
仅有
六种
据报
平等和
建议在
案文见
▁53/
国家政策
的法律和
的法律框架
▁enables
▁earmarked
▁symposium
仇外心理和有关不容忍
还与
联合国驻
缉获
▁制订
▁实现
▁cold
之间的对话
indered
武库
不一定
对发展
▁implies
▁accident
欧洲安全与合作组织
总产值
izon
第一阶段
▁ICRC
▁Abuse
名字
年对
请愿
会见了
候选国
公平和
提出了一些
fferen
▁Aware
是至关重要的
ireless
▁precisely
▁screening
另见
基本的
▁乌克兰
一个新的
的最佳做法
▁见理事会第
▁Strong
▁consumers
▁democratization
在同
entiary
ropical
▁systemic
▁scientists
AI
各样
以及第
合同的
是否符合
进行分析
之间的相互
和其他国家
▁endang
▁Company
▁Priority
▁virtually
移徙工人及其家庭成员
、8
不容
安排的
或部分
申请人
重大的
▁ton
兼报告员
的有效性
▁overf
事例
因其
德拉
拘禁
▁这将
公众对
莫斯科
week
▁Mel
人人享有
介绍决议草案
Us
解散
通信和
▁963
战争遗留
▁reass
工作人员薪金税收入
也对
会有
▁Ty
▁110
▁reads
救济和工程处
▁really
tia
家可归
▁atro
▁trig
▁tackling
▁variance
06
WTO
non
各主要
urities
▁outbreak
▁designate
▁expectancy
▁该法
▁Mil
空间物体
遭受酷刑
特权和豁免
第六届会议
▁委员会敦促
▁dismis
▁Nonetheless
矿物
trans
▁1985
▁Evid
vested
▁taxation
▁discipline
病人
监视
阻挠
ité
体现在
生命权
感到鼓舞
▁Deep
▁尼日利亚
▁driven
▁committing
▁eliminated
基石
禁产
rut
努力的
签署国
vian
服务贸易
▁iden
意见和建议
▁cooperatives
▁safeguarding
商会
划界案
unct
▁2.4
总统选举
▁zero
GS
医疗保健
联合国后勤基地
年世界首脑会议成果
东京
为这些
大量的
证人的
非洲集团
entive
rensic
▁Arusha
combatants
▁survivors
东亚
▁Us
的全部
确认了
leum
政治和经济
▁owner
gregation
上涨
证明了
▁CCW
▁Jew
由有关的
社会保护
▁bases
▁attaining
▁modification
作证
减至
1.1
有理由
的人们
rone
▁Relig
management
)”
出身
更换
这对
参加的
的财产
武器禁运
继续存在
载于文件
Israel
▁Kimber
▁attained
▁Increased
▁escalation
伊斯坦
制度和
次和第
构成威胁
World
raries
▁Young
加勒比共同体
▁handed
▁tender
On
▁议程
条款的
项下的
▁Life
以色列政府
单方面行为
▁Psych
次主要会议和
问题特别代表
▁Effects
▁diagnos
举例
ogo
▁改善
审查的
正确的
红新月
各个方面
▁foreseen
国家元首和政府首脑
科学和技术小组委员会
(4)
/09
70,
stone
▁fast
▁Moscow
▁anthrop
和国际人道主义法
▁Georgian
▁medicine
▁enactment
总督
和减少
inqu
提供适当的
最大限度地
次全体会议上
▁females
▁suppression
▁demonstrates
抵制
此后
acco
▁Line
anging
▁diplomacy
前所未
后一个
筹备进程
的政治意愿
▁fluct
abi
的群体
方面发挥了
purpose
▁dismiss
▁totalling
▁Corporation
发言时
▁Aut
▁deny
▁posted
▁childhood
地执行
我们支持
▁Fact
事务副秘书长
征得安理会同意
▁suspend
▁typically
▁incitement
据说
、42
了有关
实现的
届大会
支助和
透明和
▁arran
Pakistan
▁issuing
累积
结成
▁共同
但由于
尊重和
做出贡献
gener
▁resc
Brazil
▁Istanbul
▁Enforcement
乐观
应分
非索
区域性
ubli
,1996
2-750,
▁predic
▁perception
埃塞俄比亚和厄立特里亚
▁deforestation
ells
▁Sar
▁在这个
eenth
▁grown
ecution
sponsored
▁instituted
改革的
具体建议
刑事责任
orses
pected
▁disreg
etroleum
推荐
澳门
者在
▁Sr
▁lab
stand
▁孟加拉国
充分考虑到
▁linkage
听证
幸存
以便利
受益人
军备控制
我们需要
▁UNDG
伊斯坦布尔
区域委员会
权利和义务
▁western
tifications
▁collaborate
表述
以处理
具体情况
行政和预算问题咨询委员会的
使团
协力
致函
▁Aw
建立起
格莱德
▁tac
脱离接触
▁plus
▁会议开幕
▁removals
▁signatures
届满
已获
强大
竞选
/06
派代表
今天上午
逐字记录处处长
▁prominent
▁identifies
仇外心理和相关的不容忍现象
人质
-31
/69
在当地
由国家
ford
▁XII
整个联合国系统
▁immunity
六条
前任
进而
总体上
拟订一项
这样一种
▁fron
第七届会议
▁socially
AG
跨越
本项目
空间应用
UNESCO
▁Impact
▁Judges
▁running
可对
工厂
战胜
毁坏
中所列
(1)(
作在印发
旨在加强
asefire
▁更正应作在印发
送交逐字记录处处长
▁2001-2010
包括东耶路撒冷在内的
由有关的代表团成员一人署名
ECO
Rep
一致性
和平和
地指出
/44/
lude
▁(6)
▁embodied
▁更正应作在印发的记录上
雷斯
清除量
▁Alf
委员会于
和其他语言
贝尔格莱德
花费
英语
频繁
管理部
▁Fire
联合国发展
▁route
▁competing
但须
殴打
▁在我们
缔约方的
▁identical
HS
鸦片
.7,
XXX
/57/
▁skilled
▁Implement
▁triennial
▁designation
▁reforestation
下面
之友
瑙鲁
不利于
▁4.2
亿美元的
健康状况
Depts
▁neutral
▁prolonged
▁permission
▁voluntarily
下令
纳尔
40%
当前的
发言的文本
▁modify
▁chronic
▁players
创收
▁cr
逮捕和
包括中文
▁write
▁supervisory
▁dry
破产程序
认真考虑
▁2000;
▁caution
▁acquiring
美属
替代品
▁NAM
pered
Europe
cities
▁liter
导航
宣传和
并保证
发言的译文
ressions
▁Exchange
包括中文发言的文本
和其他语言发言的译文
▁establishments
急需
言之
谈谈
时间的
▁Gaz
▁Raf
以色列和
问题上的
▁lever
在纽约总部举行
▁settlers
See
共同的
阿鲁沙
已经成为
allah
nants
区域和国际各级
公务员制度委员会
▁provider
ographical
▁schooling
▁underline
营利
▁(20
国内和国际
所做的努力
▁creates
总务
▁禁止
并提高
math
创造有利
积极作用
STRAW
bassy
代表团支持
和其他相关
▁Commod
▁burdens
联合国最不发达国家
/08
him
有两个
的信任
该中心
原文提出
援助方案
组织合作
▁lose
的各项规定
ensity
▁更正应只对
▁2004).
▁massac
战争遗留爆炸物
▁meantime
encumbered
▁更正应只对原文提出
/41
80,
随时准备
儿子
省份
▁具有
分阶段
书记官处
这一领域
▁缔约国应
的工作方法
quired
▁helps
▁sponsor
▁tragedy
军人
vol
其成员
第十一届
证据表明
▁overl
▁本记录包括中文发言的文本
CS
少于
搜索
▁其次
例如在
对平民
性措施
移民和
详细说明
worth
▁courage
▁attacked
复审
大纲
宣告
广场
人口和
和文件
的体制
▁flagrant
这么
世界的
担保资产
美国政府
进行培训
、2002
▁ports
▁milest
▁worker
▁beliefs
▁Telecomm
2、
稳步
维奇
里奥
YFF
贫困和
任何国家
特别顾问
金伯利进程
▁2015.
▁Early
/1999/25/
▁dismissed
罢工
聚集
区域集团
India
▁2001;
▁surre
▁arises
.4/2000/
▁yesterday
▁restrictive
”:
产前
巴斯
男人
26,
▁NO
几十年
和战略
圣保罗
-199
▁意大利
oning
sements
近东巴勒斯坦难民救济和工程处
取缔
坚实
我愿
▁$7
▁TO
与社会
范围的
费用和
▁今后
被告人
转移到
财务报告
setting
▁aftermath
▁questioned
ae
忘记
进出
.43
以改善
干旱和
并感谢
成年人
的第二
1983
首要责任
UNHCR
▁1960
根据国际法
▁authentic
关系到
的直接
的问题上
8,000
endable
▁Refugee
▁Israelis
▁coalition
▁更
化管
转变为
/221
IAEA
▁Kam
协同作用
负担得起
将性别观点纳入主流
▁Indicators
公共生活
废除死刑
atric
▁Self
专家委员会
提高妇女地位司
八个
明年
缺点
rel
▁Cath
太平洋岛屿
Palest
▁Avail
▁broaden
▁studied
▁proposing
联合国贸易和发展会议
▁Indonesian
▁reasonably
▁streamline
▁successive
广告
▁Ou
财政部
作出承诺
定期审议
▁我们呼吁
▁Multi
▁shortage
▁suspects
致意
▁会上
ICYP
表示愿意
▁我们支持
作出的贡献
▁Ceasefire
▁accelerating
▁reorganization
▁凡
BDE
onz
范围和
LISH
▁140
建立一种
指导委员会
▁Elections
分工
贝鲁
事项的
注意力
brid
▁108
▁fre
▁在许多
正在努力
代表的发言
▁Opinion
▁ascertain
党派
造福
▁Ir
是不可
潜在的
界定的
所进行的
两性平等和
▁Friends
▁aquifer
▁remarkable
巴格
日趋
明智
han
俱乐部
经济的
计算的
论坛上
业务活动的
▁operates
committees
▁judgements
节余
▁Ott
发展计划
表示满意
评估报告
,000.
▁105.
estock
海洋和海洋法
▁arsenals
将提供
案法官
超过了
UNFPA
group
情况的报告
▁categor
jo
从业
只会
或对
教材
121
得到解决
、2003
▁researc
▁likewise
▁underpin
▁联合国开发计划署
印象
离职后
ivis
▁(10
充分实现
▁101.
分宣布开会
▁absorb
▁forwarded
之间在
其活动
受援国
相结合
统一的
mend
溴二苯醚
▁104.
▁ties
▁supplementing
Oz
场合
nez
是按照
▁Need
▁visa
uccess
▁2003;
▁Belgrade
的高
核证的
管制局
连续性
加倍努力
部长理事会
▁anyone
特遣队所属装备
▁Guiding
接到
撰写
空白
过来
▁$8
并说明
确保对
我们大家
国际社会对
第三次外空
▁hardship
▁pleasure
▁reaction
▁preferential
贝利
▁此类
多尼亚
妇女和男子
西撒特派团
▁pledge
▁boundary
借鉴
很低
求偿
输入
防御
的安排
ritorial
▁restoring
/2)
Nig
的人民
这三个
提供任何
正式会议
有关的其他
permanent
▁generous
▁requisite
▁Governmental
▁∗
ICT
▁115
▁Tor
▁关于第
通讯技术
rality
▁Editing
▁examinations
受灾
已将
年份
国家对
材料的
UNMI
irut
国家人权机构
▁Produc
▁安全理事会关于
我将
装箱
第七条
▁31,
▁103.
发展中国家在
▁Consider
▁Kimberley
更容易
稳定与
行政区
▁本组织
▁Mich
优质
路易
▁Du
▁34,
▁bloc
▁Micro
▁fragment
▁condemnation
▁applicability
▁decentralized
举报
之三
ESA
Law
要求对
▁UNMO
四次
带头
ato
消灭贫穷
财务状况
▁Falk
号文件所载
化学武器公约
reation
▁commemor
▁commented
▁Bolivarian
▁installation
同情
伊拉克的
国家立法
必须加强
erves
▁impede
密克罗尼西亚联邦
▁directives
经济及社会理事会正式记录
Ps
半岛
▁赞扬
、2001
▁multip
任命了
▁Inn
中的建议
的另一个
▁Much
▁shipper
▁2006-2007,
▁Intelligence
可由
效能
arb
、24
▁aro
类兴奋剂
▁不幸的是
cellaneous
ito
▁2)
▁她还
以执行
依然是
或使用
vals
▁5.2
感到高兴
▁Front
重债穷国倡议
KO
清洗
见表
取得了进展
▁Media
▁Money
▁config
▁modules
▁unencumbered
处在
浓缩
性质的
范畴内
▁(16
▁Prin
▁readily
▁Campaign
▁somewhat
▁Appointment
转换
ows
在那里
机构中
非法的
omas
▁Long
的一个关键
driven
在国家和国际
撒哈拉以南非洲
秘书长关于联合国
刚果民主共和国特派团
▁Performance
▁deficiencies
任命的
制订的
和表现
投资和
转化为
部门间
阻碍了
辩护律师
▁1244
维也纳宣言和行动纲领
▁suspicious
▁volunteers
下达
起飞
我们也
▁(11
▁1978
▁工作安排
▁thera
▁founded
▁privatization
承办
NGOs
6,000
国际人权法
委员会的成员
省的
当选为
福克兰
▁54/
▁Sel
▁card
▁Greater
▁marking
imitation
▁Subcommission
公认的
授权的
ivic
提供培训
letion
人权条约机构
▁Results
▁investigators
和苏丹
社会性别
审查委员会
▁interesting
▁modifications
喀尔
喀里
按时
无力
诚意
▁$3,
▁我希望
使联合国
▁Cart
训练研究所
▁reunification
或宗教
life
公民身份
喀里多尼亚
spanish
▁empowered
▁benefiting
珊瑚
研发
策略
拖延地
1244
▁32,
▁les
allistic
▁Minimum
▁Intellectual
▁accompanying
>.
▁近
人才
纳戈
协调人
Docs
备选方案
▁1990.
▁Jewish
▁Technological
忽略
.31
财政和
妇女组织
umptions
支持的
▁Level
▁workplan
▁infections
但这
手中
象征
、10
建议将
/213
▁Due
▁Gir
▁revi
hether
▁Principal
发展筹资问题国际会议
▁Inspectors
All
▁考虑
未支配
apse
qual
▁乌干达
出席会议
城市地区
shasa
▁102.
一国际组织
▁image
▁contempl
▁encouragement
▁complementarity
舆论
人道主义危机
ulative
科索沃临时行政当局
自杀
逆向
));
的初步
磋商中
▁103
以色列在
妇女问题
受武装冲突
school
taking
▁files
▁aliens
联合国毒品和犯罪问题办公室
审定
法郎
都已
饮水
▁减少
集装箱
伊援助团
号议定书
星期内送交
(2009)
▁David
▁credits
▁Expendit
▁beneficiary
▁supplemented
来到
款中
极大的
CCPR
German
尊敬
预警系统
▁Jose
▁sold
▁阿塞拜疆
造成的影响
hetamine
▁stockpiles
是可以
应分的数额
ovation
外汇
MIG
核查团
表示了
▁ero
▁(2000).
▁Evidence
▁verifiable
international
▁modernization
派别
▁wounded
▁complied
▁exhausted
▁operators
▁Verification
社团
发病率
总数的
保留意见
受到限制
名工作人员
需要进一步
▁sensing
▁Together
3%
Co
ux
一语
中占
员工
/4/
和性别
外勤人员
日内瓦四
生产能力
相当大的
aling
assan
▁106.
▁frust
恐怖主义分子
▁indivis
▁Narcotics
▁Alternative
▁interregional
但对
艰苦
防卫
韩国
FCs
gyp
加剧了
和地区
iced
▁Rein
▁所有这些
▁illegally
建议和
▁sac
不仅仅是
实现和平
▁60/1
的优先事项
▁Anton
▁Peter
diction
finding
ourcing
就这些
或通过
提高到
对妇女和
depleting
拯救
月中
2.5
大约有
总统和
▁Rati
理念
.44
副部长
打算在
跨部门
59/1
▁3.3
inafter
▁Danish
▁memory
经济合作与发展
▁processed
并可
调拨
都不
▁我想
▁还请
子女的
▁118
人居议程
充分遵守
维和人员
▁desk
▁mineral
FS
删去
推定
水域
在政治
系统中
经常性
任意处决
立法指南
legal
▁sequ
ounced
▁gases
▁Cooper
▁easier
▁reliance
▁announcement
下属
等同
歧视和
peti
/60/4
▁AMISOM
td
下落
关于对
方面有
生产性
Egypt
▁medi
president
一向
-1,
iam
的公司
.9/5
选举援助
所有缔约国
▁2008-2009.
▁resistance
NI
时所
▁“4.
艾哈迈德
▁人权理事会
fficial
▁contro
▁measuring
和普
杂项
流量
焦点
论文
该条
___
以反映
陈规定
▁CAT
▁这两个
可以更正
解释投票
7,000
▁saying
▁totally
▁Provisions
时应
个项目
日通过
需要对
viet
▁0.7
创造一个
▁lease
▁undertakings
以及向
的过程
第十五
ilex
▁STA
▁Revised
▁eventual
▁咨询委员会注意到
会对
大致
省级
罂粟
的任期
▁IDF
▁exit
举行非正式
▁misuse
authorized
▁Enterprise
题目
防扩散
部长级环境
▁filing
第五十二届会议
专委
帕劳
自主权
▁这意味着
▁Caled
正式记录编辑
▁tremend
▁circulate
▁2008-2009,
▁urbanization
▁瑞典
气专委
的员额
▁merit
▁ceremon
▁promising
▁Executives
和再
数百
:30
间对话
采取哪些
▁Kinshasa
▁unlikely
▁Construction
▁Exploitation
,6
段的
▁支助
最后一
质量和
优先重视
无家可归
特别强调
▁Engine
▁methyl
代表给秘书长的信
▁Endorses
▁asserted
▁CH
▁GHG
其他一些
未缴摊款
能够得到
/1373
etric
▁该委员会
和津巴布韦
特别是妇女和儿童
▁reliability
▁chairpersons
每个人
以便确保
背景文件
采取适当
▁hygi
修建隔离墙
▁thirds
军官
全人类
民主化
联络处
▁Emp
和平协议
▁insert
联合国人口基金
▁commonly
▁recipients
▁exacerbated
▁interdependent
都要
日题为
制定一个
紧急救济
三届特别会议
▁Beirut
▁barrier
▁Ensuring
▁inserted
为我们
充分和
并进行
建立和
调整数
不适用于
arial
▁Nauru
▁本记录可以更正
▁isolated
▁directors
▁differential
▁independently
海湾
化合物
可能有
全球环境
提供保护
▁alarming
▁shelters
▁TNC
预期成果
的执行工作
▁scrut
▁persist
▁Inspector
联合国粮食及农业组织
交战
基线
下降到
责任和
2012
▁São
▁unch
安全和安保
提交报告的
▁concentrate
▁universally
技巧
探测
侵犯了
受让人
局限于
而进行
▁发言者
▁申诉人
在阿富汗
▁PRES
所作的承诺
esides
▁Proceed
▁promise
▁overarching
▁immunization
40,
▁主管
延长至
的专题
1960
必须得到
ullah
closed
▁可持续发展
中华人民共和国
▁acknowledging
金沙
与政府
破坏了
▁160
就此结束
▁Compon
BA
▁南
二氧
▁Ni
没有对
八国集团
寻求庇护者
before
▁dedication
▁methodological
在向
)——
jus
ubs
来实现
个缔约国
评估小组
anian
asser
▁gone
▁Dominica
▁dependence
▁continental
日对
的两
▁缅甸
讨论中
▁科索沃
和乌干达
社会主义
风险评估
所有国家的
▁Period
▁brackets
几天
地和
而易
大屠杀
第一卷
ESCR
▁Art
发展方面
能够获得
行政法庭
补充资料
icide
伊拉克人民
▁estate
▁resolute
▁libraries
图像
其他人
减少到
交换意见
金融服务
正式记录编辑科科长
▁Supplementary
▁subprogrammes
长远
30.
便利化
和相互
能够对
号文件第
担保交易
有关方面
tably
▁Wall
会议的成果
介绍了决议草案
▁expects
▁endorses
▁parliaments
条件和
高效率
.10/
利害关系
有关当局
member
/1998/44/
▁restriction
开放供
的款项
而这些
3:00
▁CLA
▁boards
▁describes
▁entitlements
使它
内外
和南
新设
赢得
ref
▁Er
否决权
引起了
和乌克兰
成立以来
▁Detail
▁Municip
▁enacting
▁coexistence
▁Acknowledging
得益
指责
还请
▁两个
就有关
第二卷
▁glo
里约集团
fying
stead
▁east
itations
stitutes
▁ceiling
另一种
▁1951
▁stig
▁Labor
speaking
的对
精力
范例
过时
和业务
第一百
选定的
▁107
提供帮助
文化遗产
▁如果没有
提供的服务
▁childcare
▁calculation
句话
也包括
和经验
的依据
金沙萨
值得注意
参考文件
Level
rowth
uracy
▁Displ
与非政府组织
▁logical
▁sympath
iological
1244(1999)
controlled
三种
nab
tiz
▁这就
使这些
支助处
▁(13
提供一切
竭尽全力
▁Debt
▁克罗地亚
还向
阿里
▁-/
禁止和
综合报告
鹿特丹公约
黎巴嫩领空
▁pesti
▁valued
▁erosion
安全理事会正式记录
▁undermining
▁instrumental
▁pharmaceutical
冷战
塔赫
暴力的
还决定
难民的
格观察团
▁familiar
▁progressively
弱点
▁35,
紧急状态
鼓励各国
DO
录像
成年
在制定
如果不
付诸表决
社会保险
angan
▁fran
减少灾害风险
国民生产总值
▁postponed
星期内送交正式记录编辑科科长
复制
201
▁Van
▁pure
▁matri
▁backlog
▁recipro
▁vendors
多万
大麻
海盗
▁RE
草案第
▁55/
▁UNU
交流信息
代表团在
号决定第
没有必要
使用或威胁
组织和机构
联合国大学
▁Advice
▁Martin
▁unfair
▁Fundamental
▁finalization
声音
迟交
就这一
任意拘留
▁Turning
▁removing
健康权
▁Commitment
▁expeditious
▁Commissioners
已从
SAS
将用于
▁Shi
▁Ten
▁deduc
▁Scheme
▁anthropogenic
进攻
3.1
和林业
和进行
参加会议
thesis
IO
农药
参阅
▁3:
不论其
实行的
王国的
需求和
预期寿命
秘书长代表
▁Refer
ructive
▁Relevant
▁inviting
▁profiles
肤色
诸多
以消除
最新的
ager
某些国家
▁recording
贯穿
.38
182
是关于
.2),
aste
立即停止
.5/54/
ategory
▁negatively
审慎
▁一项
▁批准
参与和
很高兴
必须为
还规定
uese
方面的合作
的各种问题
▁Hazard
▁tested
▁farming
年里
最严重
销售公约
astro
▁aggregate
建制
启动了
性健康和
▁Expl
▁fullest
▁teacher
▁deciding
布林
绿色
地下水
的资产
▁Mut
密切相关
第四条第
▁着重指出
▁CLAIM
▁fairly
▁seizure
▁contracep
差额
忧虑
bar
发言中
能够为
▁las
司法程序
平等待遇
集束弹药
IDENT
heric
▁Know
.2%
127
gel
方法的
评估团
ught
与委员会
接受教育
需要得到
ayman
组织的代表
▁overseas
▁attainable
崇高
ida
重大挑战
▁Ahmad
▁impeding
▁concession
▁foreigners
▁occurrence
▁regrettable
局限
ola
多年期
家庭和
私有化
个会员国
这些原则
长期以来
▁cell
农村地区的
soever
▁platforms
专用
判刑
和范围
在社会
管制和
▁59/
爆炸装置
阿援助团
sofar
和塞拉利昂
ectious
▁metres
人口与发展会议
▁student
▁updates
4%
一并
迈出
不一致
中规定的
司法部门
Mexico
在某些情况下
▁Malaria
1267(1999)
▁PRESIDENT
▁facilitates
一笔
联席
马丁
的同意
第三个
▁Ent
▁Cauc
非洲统一组织
rengthening
▁Concluding
东西
五名
上所述
期会议
▁orphans
▁rotation
▁Populations
/07
▁这方面
其他方式
uters
活动的报告
▁weather
▁Examples
▁nationwide
索取
▁题为
其他地区
组织会议
需要加强
▁fellowship
抵触
迪西
▁(7
农发基金
▁recyc
▁unres
.4/2000
▁measurable
▁conciliation
财力
aug
oso
地进行
core
大力支持
特别是与
负有责任
▁Like
▁在联合国
▁vigil
▁(2003),
02
也已
积压
少年的
其他组织
实质性的
▁Alber
▁conscious
▁excluding
▁applicants
▁nomination
▁threatening
▁explanations
和投资
太阳能
平等的
type
▁东帝汶
深切关注
银行账户
iance
“2000
▁Egyp
介绍性发言
国际人道主义
▁replied
▁confined
▁trafficked
▁undoubtedly
▁Consultations
Ph
行动中
之间进行
▁litem
▁holder
▁enforcing
▁succeeded
侦察
起着
▁军事
员额和
和私人
美元中
被判处
▁Ant
▁agro
和平利用核能
▁stimul
▁deficit
▁Falkland
▁tendency
▁Amendment
余地
市镇
并有
/66
消耗性
fect
大会议程
更有效的
非索特派团
▁boost
▁tribal
▁vacant
两年期方案概算
▁Procedures
搬迁
经由
▁我国政府
▁毫无疑问
▁Atlas
作为优先事项
▁toward
▁dropped
▁incentive
则是
晋升
60%
和运输
联合体
cost
▁lot
▁副主席
小额信贷
附属机构的
儿童和青少年
▁unknown
▁Albanian
▁innovations
FA
将把
平行
ark
▁各位
决议第
切尔诺
和业绩
竞争性
的工作量
需要进行
ement
Argent
▁reluct
▁hampered
赞成票
部分的
augh
员额资源
完全符合
完成任务
年举行的
负责任的
道德操守
的所有方面
▁Chern
法域
道义
XXIX
site
过程中的
这份报告
提供的援助
▁Physical
▁narcotic
▁steadily
第四次妇女问题世界
▁inappropriate
可为
后面
保护区
并建立
ders
oria
▁104
▁Wal
主管机关
根据大会
▁Khal
▁Shel
▁Exten
▁neglect
▁settings
种族主义和种族歧视
▁2002-2005
▁Covenants
▁demonstrations
增值
病例
赤字
VIC
星期五
1:00
以色列国防军
▁assignments
交货
圣多
征收
人口中
维纳斯
rick
人权事务
▁Palau
▁publish
向他
致命
在这里
导致了
非洲人
准备工作
气象组织
enness
其第
特里
.50
111
所依据
破坏性
逆向拍卖
参谋
名誉
存款
MDG
▁认为
是促进
核设施
▁KFOR
▁shor
提供的信息
▁Nagorn
▁Soviet
大会第五十八届会议
保管
控诉
第斯
REP
十年期
标志着
也适用于
其他地方
▁秘书长在
日在维也纳
ovable
▁教科文组织
ightened
▁challenged
杂志
货运
53/
总协定
1974
▁FOR
几个国家
起的作用
asury
▁107.
感谢秘书长
▁满意地注意到
▁imbalances
▁laboratory
搜查
3.5
驻科部队
▁Owing
完成工作战略
utation
▁Portuguese
▁Observations
▁accomplishment
ima
一定的
vert
▁Que
▁阿拉伯
共同制度
马尔维纳斯
▁uneven
▁Leaders
zi
lla
▁签署
和改善
提供必要
的工作中
sures
▁Bagh
▁Mandate
▁Increasing
六氯
153
OSS
意义的
▁(12
▁Mog
▁其中包括
切割女性生殖器
▁fortieth
established
扩充
推出
举行第
和指标
和适用
在全世界
▁confiscated
标记
▁CCA
▁除其他
▁(2001).
▁overdue
▁varying
▁directions
处分
54/
OzL
中有关
▁106
和秘书处
返回家园
仲裁示范法
国家和地方
▁MINURSO
▁Consolidated
▁unsustainable
休会
四项
▁然后
不知道
以便对
排减量
遵守情况
▁特别政治
▁Defin
▁turned
".
获准
116
ACM
并参加
该协定
切尔诺贝利
标准和规范
▁(1996
▁alike
中东和平进程
▁marital
▁upgrade
在刚果民主共和国
▁scenario
▁Encourage
▁phenomena
城市化
往往是
5935
决策进程
▁Pact
不法行为的
日内瓦四公约
本国工作人员
▁terminated
伊拉克入侵和占领科威特
▁entitlement
混乱
24,
▁在国际
不可受理
以及加强
几乎所有
武装力量
联合行动
▁disregard
▁indiscriminate
学位
并同
指出了
让他们
rand
leged
▁compiled
▁vulnerabilities
9%
公顷
填写
镇压
中包括
第四条
▁俄罗斯
武器贸易
abric
atial
提供更多的
▁annot
两性平等问题
▁routes
49;
▁Jo
充分地
年预算
起诉和
常驻联合国代表团给
",
.1;
▁PRO
第四公约
▁entails
▁Sanctions
▁Settlement
▁adjournment
▁policymaking
fa
通告
gar
▁判例
这一情况
vinas
利益相关者
quiries
对国际和平与安全
employment
▁discrimin
汇集
企业的
的优先
的控制
纳入了
▁6.2
应急基金
监测机制
50,000
▁1949,
南部非洲发展
▁images
▁homeless
▁imported
公海
已向
果断
源于
联阵
制约因素
小组的报告
▁cancer
尝试
百慕
较大
为他们
单一的
obyl
人的尊严
,1994
orrow
▁Laws
▁vers
▁debts
▁Overview
▁petition
发达国家和发展中国家
人是
90%
May
和所有
长期的
全面彻底
▁Tokyo
▁disclosed
导言
衷心
kes
详情请
/60/2
非政府组织的
ractive
小武器和轻武器的
▁residual
▁volunteer
▁去年
对人类
规则的
eful
orti
▁Mit
/62/4
▁MYFF
▁社会发展
▁1989,
▁Instead
▁viability
可怕
改叙
死于
克先生
就无法
aine
▁1.5
本国法律
ouble
paras
在这一领域
▁最不发达国家
▁doctors
对妇女的暴力行为
▁archives
▁153
▁Map
多米尼克
段中建议
▁59/1
▁Risk
妇女和儿童的
▁voters
▁sixteenth
与之
东非
伪造
商事
国或
执照
每项
70%
和地点
讨论和
的前提下
▁Gonz
2001-2010
▁rebuilding
teorological
▁correspondence
一周
之类
判定
转运
咨询和
支助服务
、1999
封信
抵押
消失
不愿意
更密切
英联邦
▁Mer
任务期限
▁bulk
即将举行的
habilitation
移徙工人及其家庭成员权利
局长
无权
▁智利
的专业
▁33,
▁Have
太平洋区域
的工作计划
艾滋病方案
Austral
▁incomes
促进对
发起的
国际法律
▁orbit
国际社会必须
▁ethnicity
▁Commentary
)-
庄严
科斯
和公共
回顾了
▁47;
布林迪西
这意味着
.3/56/
▁swift
的宗旨和原则
知识产权组织
▁Rather
▁constituent
扶养
利益的
管理处
▁Mex
▁Ros
包括在内
巩固和平
集体安全
▁粮农组织
▁restraint
▁tradition
TT
世界大
以保护
▁RUF
共同市场
的任务是
的候选人
▁Dakar
▁决定将题为
▁Muslims
▁Contracts
▁unanimous
▁congratulations
在线
可利用
▁5.1
奠定基础
▁这些措施
Germany
▁preamble
▁卡
为使
综管
▁下文
定居者
青年的
非常任
工作组在
当事各方
民用航空
10:00
arios
▁大韩民国
▁Catholic
南部非洲发展共同体
▁definitive
▁terminology
担负
▁政治
▁欣见
托运人
▁Ltd
有所改善
4,000
▁scar
▁livestock
▁atrocities
▁proclaimed
▁disappeared
▁traffickers
hu
与第
家具
99,
asi
年龄组
的评价
下列国家
令人不安
▁coin
reason
国际工作人员
违反国际人道主义法
DD
多重
);《
市场上
年中期
报告称
刑事犯罪
受到侵犯
表示希望
高兴地看到
塞浦路斯共和国
▁deserve
▁Persistent
▁compliments
扭曲
暗杀
▁只要
做法的
另一方
方括号
发展议程
各次会议
暴力行为的
▁Inquiry
▁driving
儿童卖淫和儿童色情制品
▁researchers
▁Understanding
TH
运转
不同意
经修正
关切的问题
取得的成就
▁Arabs
▁flying
▁Egyptian
▁contexts
▁admissible
▁章
上帝
那种
cyc
▁深信
asse
shore
▁Brin
ernity
posals
外层空间事务厅
▁protest
▁巴
则应
四名
服兵役
疾病的
▁ENG
地理信息系统
▁Medium
▁earthqu
▁referral
▁visibility
rí
会在
有毒
注射
让我
242
受益者
城市和
必须将
的人士
达喀尔
▁IOM
▁PAR
任职人数
充分享受
法语国家
▁独立专家
和平与裁军
/2000/9
▁tremendous
▁seriousness
审视
广为
谈判的
▁Cres
代表团指出
▁recommending
人体
深远
育儿
使用者
记录的
lymp
基本人权
工作组主席
维持和平行动的
▁Funding
▁Various
▁consulting
én
138
▁00
合法的
时期内
以下方面
普遍认为
出资
核对
未得到
反对意见
后续工作
提出申诉
▁111.
包括联合国
▁Funds
▁audio
▁consign
▁fruitful
▁selective
▁complicated
▁九
如同
就有
引导
创造了
贝鲁特
▁(18
关于保护
Inter
人权维护者
▁Abuja
▁confronting
作者
邻近
阅读
关于该
分开会
大使馆
还是在
伙伴合作
▁calm
全国委员会
采取有效措施
▁Higher
▁inscribed
Su
为一个
受害人的
我们现在
▁hamper
▁Caledonia
▁assumptions
▁是
引用
此案
2)。
ions
国内法律
提出一项
要求赔偿
▁Blue
▁我们重申
▁2007;
▁demol
▁intercultural
▁infrastructures
医药
团聚
.47
和全面
有成效
覆盖率
Cuba
书面形式
国际条约
已经完成
电子逆向拍卖
▁Balkans
性健康和生殖健康
▁fairness
▁mobilized
和代表
影响评估
aping
▁ease
阿富汗政府
Nigeria
odeficiency
常驻联合国代表团临时代办
▁policymakers
主体
几位
承运
物项
以推动
持续的
联合方案
ilience
▁Senate
仅在
▁的确
关系中
和农业
和质量
充分享有
制订和执行
国际社会在
▁assemb
▁UNISPACE
推翻
制定和
战略性
被任命
itis
▁180
▁bio
▁109.
▁1979
▁Form
全面和平协定
▁sanction
▁satellites
Nor
参与的
平等地
国家人权
教育机构
▁108.
▁imag
▁ENGLISH
▁arrests
拥有的
place
次级方案的
▁委员会指出
▁extends
Argentina
▁precarious
IE
TP
这段
世界各国
土族塞人
-1997
chlor
普遍定期审议
▁demarc
▁mapping
▁Crescent
▁restored
亲自
169
卫生设施
就此问题
代表团希望
的普通照会
事先知情同意
及其运载工具
▁Ibrahim
committee
特别政治和非殖民化委员会
可取
奉行
.37
、40
人权法
发起了
强大的
月举行
的各类
51/2
▁科威特
联塞部队
重要贡献
nabis
管理事务部
联系在一起
▁arose
创造就业机会
艾滋病毒感染
▁licences
▁tireless
▁institute
▁inheritance
敬意
说服
限制性
1977
工作组的报告
▁rebels
▁notable
公共部门会计准则
▁persecution
yal
▁2.6
就不可能
▁Circ
安全理事会在
问题的任择议定书
▁forensic
▁emanating
保全
ema
、23
年报告
监督机构
巴勒斯坦人的
/2005/15/
itigation
前南斯拉夫问题国际法庭
威胁到
学校的
安排和
并推动
▁Lin
acent
▁Kivu
▁scene
▁Cities
▁arrive
▁select
▁laboratories
将军
总量
收支
▁双方
▁所需
民间团体
▁lifting
▁Includes
▁afforded
Government
▁successor
▁illustrated
伦理
公告
到期
试点项目
未支配余额
工作人员细则
▁cycles
▁revolution
战时
波利
当事国
捐助界
歧视的
▁cast
▁currencies
不太
服从
▁培训
▁进行
和裁军
的潜力
综合团
best
北大西洋
粮食保障
relig
、2005
日期后一个
委员会主席团
journal
▁Gazette
向各
就在
私立
以符合
有用的
▁112
▁Sat
▁比利时
不可剥夺权利
实现这些目标
▁pressures
▁unchanged
的评注
poor
rech
提出要求
管理机构
和联合王国
男童
▁投资
▁项目厅
▁phil
岁以下儿童
至关重要的是
▁Economy
ticultural
▁Objective
应得到
替代发展
ESCAP
▁Sale
▁unequal
▁dramatic
▁utilizing
咨商地位的非政府组织
三条
收缴
流域
▁接受
▁该项
辩论中
▁Vis
任务授权
经济援助
身心健康
▁auditors
▁subparagraphs
国王
总局
web
▁纽约
审查其
的批准
▁102
▁ITC
各种各样
政府首脑
的国家机构
▁1994.
▁Claims
下届会议
多样性和
货物运输
luded
▁1981
▁Berm
第六委员会
▁indications
▁microcredit
▁participates
并从
目录
遭遇
1.5
和防止
核武库
段所载
年通过的
法律保护
协调理事会
ousand
▁Areas
▁Overseas
▁criminals
▁allegation
aterritorial
会使
表面
112
结果的
▁101
▁fee
国家当局
人道主义和
联合国广场
rights
关于艾滋病毒
▁geared
的联合国会员国
National
▁UNFICYP
所受
年会议
▁Event
▁Olymp
▁Ozone
不被
和过境
强调说
国际协定
外部因素
武装集团
这一项目
非法制造
其他国家的
convened
▁corporal
兵力
外籍
实习
应计
逾期
难题
作为对
学校和
▁win
养护和管理
▁(2007)
和维护
▁42,
二氧化碳
/55/6
▁Less
多大程度上
▁sensiti
采取一切适当措施
▁brokering
▁remainder
▁cornerstone
▁unauthorized
易于
并实施
按比例
▁null
▁这种情况
婴儿死亡率
ratory
▁poppy
人员和有关人员
包括千年发展目标
尔斯
阿克拉
rors
专员小组
▁mail
建设性对话
▁named
▁accuracy
▁attempting
成了
提具
▁新闻
关键的
guez
▁males
▁carries
assessment
EO
加迪
北美
起码
陪同
、25
巴格达
支出的
遭受的
▁124
▁sample
▁Detention
dh
不加
-28
日为止
▁Ret
▁1984
▁hero
提出的意见
▁bromide
▁library
▁optimal
▁informing
▁Civilizations
源自
run
urd
第二节
关键问题
表示同意
国内总产值
▁Border
/1997/40/
▁interloc
公用
横向
可预见
并确认
enos
▁Sao
-2015
▁SADC
▁supra
▁handled
▁regretted
受其
淡水
two
犯罪者
0.7%
▁hit
该地区的
资源规划
▁这是一个
及销毁此种
的任何其他
section
▁discrep
▁换
世卫
共处
定位
票赞成
oroc
ptive
或任何其他
icians
▁forci
国内补救办法
?”
星期一
表达了
阿布贾
项目的审议
▁civic
▁rounds
部长级环境论坛
▁openness
问题的秘书长特别代表
国情
来信
约占
和军事
和财政
将得到
生育率
覆盖面
1963
应对措施
机会平等
联络小组
.109/
▁哈萨克斯坦
维持和平人员
▁quotas
▁rightly
亟需
分支
可见
文学
133
理由是
监督和
▁1.3
犯罪活动
▁Fish
副特别代表
经济一体化
▁2005)
▁united
Parliament
▁我是否可以认为大会
三大
杰出
圣赫勒
▁cards
▁Travel
日内瓦第四公约
▁在报告所述期间
大规模毁灭性武器的
十九
场地
其主要
所产生
穷人的
disi
▁3.4
▁“5.
必须通过
DGACM
funded
▁moder
▁successes
▁experiencing
-/
几点
峰会
希米
文信
206
AWG
▁人口
▁242
圣赫勒拿
▁unrest
▁vessel
▁Concerned
主计
报纸
本条第
每两年
▁parad
▁refine
欧共体
竞争法
额外的
1951
载有关于
达成一项
▁hour
特设专家组
▁Appendix
参议院
拟定的
是确保
▁Nos
和有效的
应对这一
explo
▁Repl
▁superior
▁Chernobyl
▁deadlines
▁Diplomatic
上一
票据
这就是
部长们
▁又决定
以及如何
减免债务
这一重要
▁Tele
号决议以及
▁demanded
▁伊朗伊斯兰共和国
向大会第六十届会议
妨碍了
第二届
也是如此
问题方面
▁Boug
监测和报告
chinese
第五十四届会议
▁INSTRAW
平静
约定
联络点
▁123
一位发言者
.5/55/
大会第六十三届会议
经济合作与发展组织
▁Available
▁consultant
出台
论及
干维尔
应立即
全球化的
知名人士
▁Luis
影响的儿童
被剥夺自由
▁Scope
▁risen
▁handle
▁Brindisi
▁Ethiopian
▁differenti
曾在
受到威胁
▁extr
/2001/1
、9
交互
及早
▁资源
和改进
新出现
最脆弱
TION
food
▁Dut
布干维尔
▁110.
▁决定草案
▁Ottawa
Australia
▁freezing
▁irregular
▁Assistants
;”
为限
城乡
▁“2
百慕大
管制的
委员会就
▁联合国同
以协商一致方式
▁flights
▁accepting
pts
不同于
不适用
以支助
做出的
▁安哥拉
▁1973
▁tent
▁Proble
▁cataly
▁Annexes
诺斯
117
的主席
其中大会
国家法律
打击和消除
▁Accra
▁缔约方大会
世界粮食计划署
expendable
(8
POP
专门的
▁(7)
这种合作
▁IDPs
▁earn
中欧
后裔
监核
▁1)
分析了
或族裔
承诺和
XXVI
▁决定在
毒品贩运
▁Home
▁Host
更好地了解
venues
through
决议草案提案国
▁Baghdad
国际货币基金组织
根据安全理事会第
Federated
▁consisted
▁respondents
牢固
因为该
iyah
▁重要的是
▁Apart
▁drive
▁euros
的结论和建议
▁Offices
▁suicide
▁coercion
▁波斯尼亚和黑塞哥维那
▁unfortunately
并制定
的第五
助理人员
和委员会
Third
▁Lear
▁Martí
▁埃塞俄比亚
建设和平支助
▁thousand
职工
使用和
通过后
《2005
采取了哪些
▁Sched
russian
不幸
3.4
普遍的
ried
trum
▁aug
reaching
▁Respect
▁hygiene
发展中国家和经济转型国家
典型
精算
-21
lew
价值的
的债务
▁他认为
主席邀请
关于执行
ernal
▁planet
▁refuse
▁(2007),
▁solving
▁widening
和基金
仲裁裁决
▁Christ
▁overlap
▁passing
尚待
条所
▁卢旺达
结盟运动
各职司委员会
ialogues
▁gaining
3;
哈瓦
户主
联苯
.8,
并作出
谈判中
▁Tal
中等收入
的第一步
▁IMIS
▁Fight
而作出的努力
▁emerge
▁Hazardous
▁panellists
▁pollutants
的平均
that
基础教育
(1996
SPLOS
rupted
卷入武装冲突
▁Mexican
▁nineteenth
LR
Pe
其次
家务
届时
外交和
法治和
的重点
▁raw
2005/
▁Fern
▁Experience
标签
▁该司
监核视
号决议的
详细资料
cohol
和巴基斯坦
▁critic
▁Economics
▁impediments
▁accumulation
信誉
前后
IPO
▁在对
所说的
通过与
five
▁UNAMI
▁inaug
候补
不涉及
律师协会
▁Take
▁suit
联合国关于
▁Brahim
▁委员会鼓励缔约国
反复
并使其
结果是
要求提供
特别协调员
▁replen
▁timber
▁attracting
207
身份证
▁119
这种行为
会议通过的
/2005/6
▁infectious
▁disposition
▁Particularly
增效
外聘
应从
杀人
代表对
科索沃塞族
▁Sources
▁clinics
内陆发展中国家和
切合
4.5
CHA
▁SR
▁综合
ishu
▁$15
主要责任
例外情况
适足住房
▁第五十六届会议
▁Rehabilitation
太华
新增
人发会议
当地社区
第二次会议
artoum
安全理事会决议
▁generic
religious
▁spectrum
It
▁133
利用这些
政府正在
而进行的
uality
▁Twelfth
▁hostile
增补
首相
上升到
▁338
▁Are
关于国家
战略规划
民主力量
监核视委
管理当局
/56/3
items
▁Best
在达尔富尔
实现可持续发展
European
▁Projects
ky
伸张
▁当前
参与方
向政府
和预防
来加强
索赔的
▁hum
▁肯尼亚
各不相同
▁tonnes
▁default
▁intervene
▁precedent
以免
-34
禁毒办
/214
▁检察官
进行监测
adors
▁column
ainville
▁answers
▁coupled
rastructure
▁Instrument
▁Ministries
扣除
目睹
依然存在
号决议所
heast
Geneva
arabic
内务
无数
的广泛
提供充足
的一致性
▁arts
▁备选案文
裁军事务部
▁在国家一级
内在
船旗
的协议
▁Gar
▁bin
全国各地
标准规则
阿拉伯人
cribe
非洲国家的
▁rests
▁bulletin
▁unequivocal
采购司
1978
▁109
▁dict
请秘书长在
adishu
unting
▁visas
机构和非政府组织
documents
▁Contribution
▁demonstrating
保护所有移徙工人及其家庭成员权利
信念
往来
情绪
辞职
过的
加迪沙
▁研讨会
在第六十
▁国际法院
▁Delhi
faceted
▁childb
▁维持和平行动部
善意
奠定了
技术性
明确指出
▁(2002)
sparency
▁cooperated
▁Reiterating
▁residential
力图
回归
118
▁[(
消费量
联系的
起诉讼
的问题和
缔约国应
自我维持
▁112.
任何形式的
▁Aires
▁amongst
逃离
IES
▁工作
▁每年
国际保护
安理会的
履行义务
▁强调必须
转型期国家
达成一致意见
▁Helena
▁Centres
、7
回复
彼得
抓住
-5)
▁$9
主计长
(199
ando
▁又注意到
做到这一点
▁Directive
▁Satellite
▁personally
▁特别政治和非殖民化委员会
口粮
渔船
,10
帮助下
当地的
材料和
由一个
第三条
.11/
在其报告
摩加迪沙
▁fails
▁Courts
▁Deeply
▁apparently
▁Bougainville
▁Ko
▁海地
向各国
确定为
/111
▁大会在
成员国和
anium
▁塞浦路斯
▁我现在请
▁lacked
▁legality
▁trainers
Palestinian
回顾说
选择的
▁会议的
电子签字
第五条第
方面的培训
MISSION
▁pillar
▁seventeenth
Strengthening
加元
圭拉
控告
苯丙
金钱
▁芬兰
儿童在
和未来
anes
人权机制
的一项重要
▁impair
▁clusters
▁afforestation
情事
afe
六氯环
罗先生
63/2
▁venue
▁fallen
cessions
▁packages
▁Mogadishu
▁advocates
▁transferring
一类
审前
要有
她们在
看作是
的政策和
新喀里多尼亚
非国家行为者
▁Ethics
▁raises
▁manager
hibitions
和尼
外长
废弃
所知
苏联
.-1
LDC
突出了
答辩权
▁CMP
▁Mot
不受歧视
荒漠化的
前战斗人员
支持联合国
ophistic
▁Delegation
▁继
到的
生长
%20
万欧元
日益增加
该组织的
保护和援助
▁1967,
具有重要意义
▁urging
结束对议程项目
▁necessit
▁Legislation
内战
悬而
深化
1.2
水平的
▁bad
▁在审议
作出回应
议程上的
阿卜杜拉
各专门机构
▁neglig
▁absolutely
兑换
成分
研制
意义上
苯丙胺
▁据指出
社会政策
具有约束力
在这种情况下
▁culmin
时在纽约总部举行
普里
移送
了许多
危机的
全球化和
/58/6
ingly
▁furniture
▁determines
▁financially
“《
偿债
▁请求
在不同
设备的
late
内部控制
在卢旺达
有与会者
毒品问题
关于议程项目
▁cohesion
▁residing
▁discriminate
▁compatibility
减损
土穆
树立
考绩
.4)
▁扩大
对人权
世界大战
是否存在
这些行动
通知委员会
▁总务委员会
▁faster
灾后
以任何
饥饿和
will
总务委员会
▁Items
▁Monts
▁metal
▁Hassan
酷刑和其他残忍
政府将
活力的
UNIF
后续活动
▁dwell
▁exploit
▁contributor
无罪
机械
获释
的主权
efin
▁aer
▁lie
avail
委员会会议
恐怖主义的
▁Distr
▁Watch
▁joining
▁Strategies
▁securities
亚洲及太平洋经济社会委员会
日秘书长给安全理事会主席的信
亿人
激烈
责成
▁泰国
▁获得
日下午
在该区域
▁1972
▁我们敦促
通过决议草案
▁abandoned
▁现
利率
皇家
338
8)。
”)。
▁公共
▁改进
确立了
tier
▁第二个
促请缔约国
insula
naires
▁1988,
人类发展报告
▁Throughout
想象
略有
马克
305
各国应
石油和
1737
地雷行动
onesia
▁devise
▁doubts
▁abducted
▁assuming
▁predictability
清晰
任务和
喀土穆
极大地
1979
▁6.1
安全公约
管理部门
金融情报
enter
▁tort
▁遗憾的是
联阿援助团
▁Advoc
▁usage
▁UNOMIG
▁propag
▁Brahimi
▁affirms
夫妻
巴拉
留下
114
中获得
再次呼吁
安全保证
重新考虑
与民间社会
▁interface
▁Investigations
同行
均为
等国
该基金
▁Bou
发出邀请
悬而未决
积极影响
▁pron
成果管理制
olving
全球伙伴关系
麻醉品管制局
▁Embassy
禁止化学武器组织
▁dynamics
▁Especially
▁consecutive
▁delimitation
Implementation
▁Ca
▁他在
与这些
再延长
的拟议
isen
pret
▁(1),
▁wood
health
巴勒斯坦平民
▁Andean
▁Knowledge
▁alignment
▁foregoing
▁precursor
不符
她说
和条件
广泛地
的了解
里先生
▁40,
建立新的
提供足够
最严重的
-1998
和社会经济
提供服务的
人权委员会第
前南斯拉夫境内
▁gravity
servicing
umulative
▁claiming
▁dialogues
hereinafter
量化
和双边
▁Kis
最后确定
理事会的
▁114.
▁Angu
▁conce
红十字委员会
▁differ
▁failing
▁Khartoum
▁tailored
yt
还会
van
提交其
来促进
casts
▁Tome
之间的差距
联伊援助团
行政和财政
贸易和投资
▁overc
▁执行部分第
解决这一问题
▁repeal
▁insofar
▁Laundering
▁detrimental
特尔
览表
(10
▁ke
▁对此
圣多美
ione
具体目标
我们可以
的社会经济
▁plain
▁shape
▁horizon
▁ignored
▁distinguish
传达
环节
等字
/...
代表代表
公平分配
移徙女工
主要是由于
全面政策审查
小组委员会的
▁Buenos
独立国家联合体
▁aggravated
是其
走上
金斯
▁那些
对环境
项目下
prot
▁38,
▁unw
国际发展
领土政府
▁1991.
▁2003).
▁enquiry
▁Drafting
▁recurrent
▁confrontation
从其
lez
很容易
承诺的
55/1
区域会议
▁voter
▁我们注意到
▁令人遗憾的是
安理会议席就座
▁Thematic
▁rationale
▁Memorandum
母婴
海军
素质
迟延
205
和效率
ocus
得到执行
支助事务
▁妇发基金
和精神药物
有关的事项
国际药物管制
▁guardian
▁certainty
划定
和向
监控
▁采用
▁预算
将负责
的访问
OEWG
决策过程
基础结构
提出质疑
light
审查和评价
▁Outputs
▁deposits
▁computers
▁Arrangements
MEN
运作的
feed
laud
如何处理
这一概念
▁(1998),
▁assists
▁cannabis
XL
▁受
▁国
万名
延伸
的水
▁——
▁援助
专家和
家庭法
OECD
必须根据
第三次外空会议
▁tenders
▁convergence
哈里
大国
开曼
don
olf
ros
▁推动
是必要的
机构和组织
▁ascer
为发展中国家
▁module
巴勒斯坦人民的
为数
4.3
收集和
的份额
其他资源
对性别问题
维也纳办事处
▁exploited
▁codification
祝愿
音乐
的捐款
的职位
设计和
邻国的
初等教育
▁Sharm
▁ideal
maments
▁Assess
▁shocks
离职后健康保险
▁adviser
▁harness
工作人员薪金税收入估计数
▁concentrations
GB
▁法
专属
住宿
周边
待命
检索
▁pa
.2);
不受惩罚
联合声明
errat
高级别对话
appear
▁repeat
gorously
▁Serbian
▁practic
▁某些
日以来
tees
临时部队
候选人的
禁产条约
粮食援助
会议的结果
各区域委员会
特别是在非洲
acional
东南亚国家联盟
▁depended
ét
压迫
汤加
野生
Mar
影响了
的潜在
被列入
调查员
▁44,
及其家属
建设一个
继续执行
▁ends
及其议定书
把重点放在
▁lengthy
▁specialist
▁appropriated
reb
▁伊朗
严格的
过渡到
▁fug
▁gri
不可逆转
这些报告
▁113.
▁Mahm
tising
worthy
▁droit
▁2000).
但其
全盘
更广
派往
西比
交易的
它认为
执行机构
本国干事
nance
▁1971
▁foresee
全球部长级环境论坛
▁abolished
▁reforming
▁commanders
rov
▁申明
年国际
强有力
培训中心
并进一步
该办公室
▁116.
▁1737
▁1969
联格观察团
sustain
▁scarce
▁importantly
▁deteriorating
上限
天体
成千
索偿
、35
向我们
超出了
▁Tay
经济部门
▁revis
许多发展中国家
全氟
大于
概括
流产
CHW
▁拟订
▁此后
来确定
解释为
▁138
▁据报告
我们今天
▁Bern
▁非洲联盟
方面的经验
/1994/
▁vendor
▁segregation
德尔
▁开展
保存人
公民的
透明的
这些项目
▁Alex
▁ICPD
冲突后建设和平
▁Amnesty
▁Cypriots
▁happened
▁defendant
▁COMMISSION
万国
不愿
很有
.42
/4)
yes
、45
为儿童
因素是
困难的
坚定的
大家庭
rome
但委员会
变得更加
工作小组
所带来的
行动框架
▁reper
▁river
全面彻底裁军
▁printing
▁Associated
▁kidnapping
▁comprehensively
中将
以求
并邀请
氟氯化碳
(1995
rames
、1998
国际联合会
指挥和控制
▁ought
▁solemn
LB
To
也未
可比
电影
航运
har
▁信息
的说法
uing
决定是否
各国代表团
第十四条第
▁Design
▁piracy
▁Armenian
▁Proposal
▁observes
,]
da
明文
166
▁加入
公司和
官员和
赔偿金
▁DDT
在该地区
必须遵守
青少年的
ensed
采取的步骤
(1998)
▁sinks
amation
▁clothing
可从
该系统
▁该计划
工作组会议
▁happen
最不发达国家和
▁clearer
Indonesia
▁sophistic
保育
90,
生产者
的经济增长
▁根据大会第
艾滋病问题的
▁disclose
▁simplified
▁Exploration
克制
转入
以前的
精神病
1961
款规定的
▁Khan
ingual
▁summer
成果的执行情况
▁prospect
远景
/3,
ora
▁这份
作用和
同时又
如何在
安第斯
性行为
提供机会
一般性讨论
流离失所者的
▁Stocks
▁legacy
/1996/15/
▁temporarily
团队
谋生
▁提交
之后的
而易见
/218
代表性的
实物保护
unior
▁costly
▁footing
▁Briefing
号编
48;
主办了
并不能
虐待和
充分实施
有系统地
▁Republi
▁Pollutants
55/
和欧洲
Prot
其他有关
我们能够
提起诉讼
显而易见
▁rail
圣基
威胁或
代表团欢迎
.6/59/
与联合国系统
▁checks
▁Possible
▁Geographical
出租
长达
agn
eces
elve
▁61/
政治宣言
文件分发为荷
▁dispar
▁outlines
▁volatile
▁Commissions
原来
年后
情势
数千
新型
毒性
TTE
nds
为实施
按照其
▁coc
一致通过
高兴地注意到
Chairmen
▁Classification
笔译
、14
不动产
项建议
▁Fem
就议程项目
特别行政区
进行的工作
▁Michael
▁thirtieth
,7
你的
克减
斯卡
▁统计
的平民
▁ACC
感到遗憾
▁broken
财务条例和细则
▁UNMISET
▁manuals
▁委员会还注意到
she
副总统
协定和
基本法
珊瑚礁
第十一
全国妇女
国际法的
行动自由
这一事项
有些情况下
▁Exerc
▁remnants
▁groupings
▁underscore
Sy
也能
并无
而这
转到
Tra
以上第
任主席
女士说
都有权
首先是
海地稳定
适当考虑
▁Lack
▁cant
和俄罗斯联邦
提出的决议草案
科学和技术促进发展
RO
借款
大小
民法
点是
时限内
▁Han
培训活动
理事机构
这些方案
▁亚美尼亚
发生的事件
▁versions
▁elaborating
人选
年到
费和
迈进
119
承付款
而采取
made
▁Arc
提出请求
生活质量
▁1974
受害者提供
▁penet
在安全理事会
技术合作方案
裁军审议委员会
esgericht
武装冲突中保护平民
光盘
惩戒
内部和
▁Bay
▁我们现在
大规模杀伤
进一步讨论
▁compe
issance
commerce
准予
列报
北非
所为
115
▁Ve
各有关
已采取
的数目
lots
▁Lou
▁该决议
国际研究
先生阁下发言
▁Cayman
▁compile
好的
/3)
可获得
大会第十
▁Srps
▁Kitts
▁turning
▁influenced
▁Preparation
以其
侵入
在他
通报了
▁第四十
临时报告
多国部队
持久解决
程序问题
▁Diss
的主要原因
▁Signature
▁miscellaneous
一倍
谈论
、44
anga
小额供资
和平与发展
mented
▁Supply
帮助发展中国家
▁Defense
▁Equalization
变更
和被
星期三
有更多
这两种
制裁制度
政府部门
有关规定
提出的要求
▁motions
roductive
▁Principe
▁deportation
奥尔
段所
老人
IPS
和普林
lean
东欧国家
切实享受
▁理事会在
科特迪瓦行动
▁Require
▁purchasing
出卖
▁总的
出现在
/316
▁第三十
侵权行为
和以色列
agers
plete
▁Mass
▁prag
工作人员在
届特别会议的
▁invalid
criptions
▁director
▁evidenced
▁confronted
;1
aut
sis
成千上
loqu
▁(24
▁AWG
▁sew
▁Dutch
Eastern
petitive
▁checkpoints
(9
一部
先后
win
专家们
可根据
审评组
ston
捐助者的
▁ware
▁人权问题
或任意处决
▁proud
▁Church
建立无核武器区
▁Submission
半球
国界
常务
生化
阵地
▁总之
农村和
可靠性
的住房
目的的
▁KPC
债权人的
和普林西比
▁行预咨委会
产生不利影响
在任何情况下
信息和通讯技术
▁Infrastructure
追查
bec
圣基茨
日上午
▁49;
截止日期
机构以及
生殖保健
▁许多国家
▁reloc
属于少数群体
▁uranium
tilingual
▁Enhanced
▁Liability
▁automatic
▁Initiatives
结论是
零部件
有效实施
的时间表
赔偿委员会
提交一份报告
监察员办公室
▁2008-2011
:1(212)963-
▁Restrictions
▁dramatically
以最
月起
薪资
里的
▁AL
、34
增长的
▁56/
之间关系
方面遇到
▁1977
▁PRSP
▁TNCs
▁error
.4/2006
▁Bermuda
圣多美和普林西比
▁studying
▁whatsoever
▁interpreters
,9
比勒
落后
要件
劳工法
处理了
aded
stop
▁115.
黎巴嫩政府
▁print
▁应主席邀请
▁Srpska
▁scenarios
effectiveness
上一次
反过来
联合国实体
▁INTER
▁repay
▁temper
▁corrupt
▁rebuild
特别是发展中国家
从来
61/
isi
▁迄今
各国和
▁Upd
受影响的
国家战略
front
rozen
领导和管理
▁Threats
▁recruiting
▁ratifications
废止
贪污
驾驶
在确定
所涵盖
承认的
方面也
的信心
令人担忧
▁UNMIT
▁Compar
协助发展中国家
现有资源范围内
▁Slavery
▁resilience
▁convictions
二级
照片
、27
一年的
▁Fer
▁Lau
卜拉希米
最新情况
民主政体
▁artis
▁terminate
加班
尼奥
轰炸
差旅费
的司法
▁这包括
阿尔及尔
▁利比里亚
▁艾滋病毒
▁Moroccan
▁synthesis
▁publishing
▁dismantling
▁helicopters
含糊
模拟
炸药
Bur
全国性
经社部
还应该
机构合作
民族团结
提供了关于
▁Tonga
▁perman
▁reconf
rability
▁visitors
▁Observation
▁notifications
▁questionnaires
市长
)、《
产品和
并在其
更详细
的社区
被用于
较高的
▁又重申
建立联系
蒙特塞拉
fficking
1998-1999
▁消除对妇女歧视委员会
▁commendable
▁facilitator
▁irreversible
债券
受权
断定
bel
不清楚
在法律
多学科
的运作
切实可行
切实执行
和乌拉圭
暴力事件
而产生的
要考虑到
领导人的
ougou
rente
这项决议草案
▁Provin
▁exempl
▁Recovery
▁demining
▁invaluable
伊图
各州
赫尔
59/
的年度
鉴于此
1972
管辖权的
rines
▁nets
export
适应气候变化
▁parity
▁degrees
▁evolved
▁Firearms
▁armaments
▁prosecutions
bu
杜古
西方
▁HC
和宗旨
在发展
实际的
支助股
的知识
etal
▁111
非常重视
任何时候都
▁Crisis
▁bottom
Presidents
ih
经纪
.).
决定和
利用其
协议的
申请者
远距离
医疗保险
没有充分
▁Nord
的国际法庭
▁2015,
▁chlor
住户
▁核准
ndez
▁NAP
适用范围
▁Eritre
▁Safegu
▁signal
▁accrued
▁Membership
▁scholarships
,8
善治
斯蒂
过多
ROM
▁多数
选举的
▁FAR
▁lia
公民投票
和尼维斯
渔业管理
/1999/
compan
减少灾害战略
▁Growth
▁ceased
▁escape
▁metals
▁Proposals
▁Republika
▁Consultation
,*
为主
前注
帕拉
提供者
方法是
的将来
ecos
加以解决
实施制裁
相对优势
liquid
▁Benef
▁seize
▁vested
▁disciplines
原告
年下
掠夺
效用
部族
top
传播和
在实地
在目前
特点是
过去的
1975
▁wai
▁在一些
▁有必要
农业部门
▁(198
委员会工作
prises
▁patrols
特别委员会的报告
▁permitting
▁constructively
2.6
CCW
esc
▁将在
为目标
人数的
证实了
事实上的
将其作为
简要说明
特设咨询小组
▁提高妇女地位
▁Speakers
Switzerland
9(
意向
完成的
核可的
▁Pra
土地管理
▁nurs
(2002)
ortium
▁Towards
▁waiting
Recalling
▁similarly
▁protracted
▁诉
固有
PBC
全面地
和就业
在适当
已取得
时间和
第四章
发生变化
▁117.
按照大会第
ríguez
▁Nevis
▁Algiers
▁Insolvency
科索沃临时行政当局特派团
▁multifaceted
HL
Vol
和调查
这一切
这表明
▁尼泊尔
代表指出
▁1975
麻醉药品委员会
▁textbooks
或由
残酷
▁1/
▁基金
制造业
申请书
科技委
萨里奥
还应当
usse
▁DDR
关于打击
资源分配
号决议和第
和工作安排
apacity
▁10,000
▁extremism
▁finalizing
两周
偏离
应邀
道理
unf
▁丹麦
在各级
将确保
▁Cal
▁box
基地组织
工业化国家
vening
▁marks
国际不法行为
▁deserves
定性
欠款
的修订
tible
▁Hist
作出了贡献
▁virus
及其附属机构
▁Accord
缔约方会议第十
▁Establish
▁Relationship
▁Reconstruction
休假
到位
经理
rif
不承认
准确地
历史性
和各种
被关押
▁48;
▁他希望
各届会议
arant
emics
rella
大幅度增加
▁enlarge
▁政策
决不能
第三款
该公司
/227
发展情况
特别账户
/55/5
▁POPs
▁maps
低收入国家
职权范围内
▁UNAMA
▁edition
全境
制图
斯基
既然
民盟
▁处理
的处理
arif
尚未加入
▁Sout
▁peak
防治荒漠化
tifying
▁fisher
▁William
行政首长协调理事会
▁Socialist
▁investing
▁增进和保护人权小组委员会
▁multisectoral
FM
务实
.6,
7),
▁CN
岁以上
并回顾
进程和
▁125
▁tob
公共秩序
国家能力
日常生活
特派任务
▁lend
▁combine
▁nonetheless
▁年
烟草
amy
保护其
感到满意
▁CISG
▁这些活动
的主要原因是
第五十三届会议
▁tobacco
难民和流离失所者
▁overflew
▁seizures
▁neighbourhood
▁administrations
为准
减除
和最
依赖于
空缺率
绝不能
自动化
处境不利
多个国家
▁Arch
▁Heav
大多数国家
必须考虑到
所设委员会
ocation
▁educate
▁invested
▁petroleum
08
哀悼
▁约旦
对那些
服务业
治疗和
▁enjo
contract
▁Anguilla
▁policing
▁delegated
▁Facilitation
应按
格兰
阿族
的正式
让我们
afety
▁为了确保
▁我们需要
▁2005).
▁spring
rigation
▁(2008),
▁verified
▁websites
▁harmonizing
▁preferences
携手
议事
都对
▁AW
执行该
给予了
▁POL
▁这样做
具体问题
帮助他们
第十四条
届会结束后
profit
▁关切地注意到
Republic
▁Migrants
▁disturbing
▁constituting
真主
逃犯
ids
uce
我希望
是如此
估计费用
可能造成
外国占领
统筹协调
这项决议
▁rent
▁Agencies
▁秘书长关于联合国
▁compensate
在这
▁出于
▁各种
支助的
arie
▁为了使
小组建议
方面进行
▁semi
▁unclear
▁assignee
仇外心理和有关不容忍行为
步伐
202
参与性
的安全和
▁stra
做出的努力
▁franc
与贸易有关的
日星期四上午
▁Punish
之急
变为
认同
1)。
作出规定
各项活动
OHCHR
机构的合作
六种正式语文
▁floods
▁freight
▁confirms
▁ordnance
▁situated
▁eighteenth
▁sustaining
▁configuration
▁安全
准则和
和电子
▁Tam
西班牙文
和社会服务
就这样决定
tensive
▁联合国秘书处
圣基茨和尼维斯
▁tracing
历来
私法
POL
abe
▁Hu
指导下
的一半
的修正
程序中
安理会主席
▁Until
cussions
▁Seventh
▁confine
▁委员会请缔约国
▁Rodríguez
交由
克尔
uto
不公正
倡议的
遥法外
UNAM
▁$4,
关于预防
访问期间
问题专家
仇外心理和相关
▁rations
▁Extension
机能
查验
该股
铺平
Ben
几年来
妇女占
.96.
conn
与会员国
卫生服务
结社自由
rying
防治艾滋病
进行记录表决
铲除殖民主义
/2004/4
▁Juvenile
会议厅
区域或
还欢迎
/182
海洋法法庭
▁adjacent
ordination
▁Directors
▁fluctuations
GA
列在
季节
个工作
▁Ash
加强国际
发展中心
▁118.
▁Adoles
▁Austrian
▁disagree
▁accumulated
大略
水道
▁全体
各领域
在解决
本身的
不可避免
其中规定
apers
ainstreaming
报导
.),
.1%
▁AI
计划于
▁我们将
宗教信仰
的各种途径
▁chart
▁没有人反对
▁Berlin
▁purely
预防犯罪和刑事司法委员会
209
和冲突
继续同
国际中心
的同文信
▁Adap
▁ONUB
所采取的行动
/2005/1
▁resign
宣言和行动纲要
▁minimal
▁dispatch
▁redouble
▁Disappear
▁shipments
Ma
缺席
、39
年以前
▁第一个
一些进展
不得超过
▁reop
urious
centred
▁deepen
▁provoc
▁widest
▁implied
▁contaminated
▁biotechnology
交往
就职
xin
▁刚果
、38
公平地
发挥着
方面是
森女士
的现实
drop
组织结构
.2000
▁Shab
▁履行机构
毫不拖延地
▁black
工业发展组织
feeding
▁Census
同酬
回报
容许
里斯
高层
的领土
born
▁128
和讲习班
特别重要
▁auction
arization
▁Manufact
▁strengths
▁Addressing
传递
人死亡
和滥用
和非法
的价格
老龄化
该领土
/52/
意识形态
的作用和
重大影响
▁劳工组织
▁invoke
▁Contact
▁Whether
▁anything
▁imbalance
▁president
▁empowering
▁extensively
自豪
门户
健康的
可以为
在冲突
拟订的
最重要
能得到
▁4.5
▁Hal
继续下去
▁unre
难民和国内
▁[...]
▁undue
▁reveal
支援最不发达国家
▁Exercise
▁failures
▁inconsist
▁destructive
生成
在审查
指出的
做出决定
▁fuels
境内的人权情况
残疾人权利公约
联合国最不发达国家问题会议
大选
存放
至迟
加强和
指的是
新议程
需求的
执行伙伴
ierre
▁高级专员
代表安理会
各国政府和
基础设施和
二十一世纪两性平等
▁Contractor
正面
资助的
amin
tail
▁Yok
▁我相信
▁还决定
社会融合
联合国同
的国际组织
▁cells
外交部长会议
联合国国家工作队
▁Sciences
▁moreover
▁Neighbour
▁sensitivity
可向
母乳
、43
以评估
riel
由于缺乏
立法机构
人权的行为
提供实质性服务
▁内部监督事务厅
▁consular
联合国日内瓦办事处
▁Montserrat
无意
渐进
ilo
▁Ny
人员在
必须与
MDGs
感到关注
一些代表团
人道协调厅
impact
▁solar
▁doctor
uveniles
▁banning
▁scrutiny
▁请将本函及其附件
麻醉药品和精神药物
▁Burundian
▁Operative
▁installed
▁recycling
▁affiliated
▁mitigating
不扩散核武器条约缔约国
▁commissioned
博物
一览表
了新的
供资的
各地区
和协助
扩大其
有效参与
歧视性的
9,000
序言部分第
领域的工作
委员会主席的信
▁charter
▁silence
▁alongside
▁replacing
▁expressions
乔治
护士
将能够
具体说明
罗马教廷
▁None
▁insur
温室气体清单
terrorist
了与
伤残
北极
可作为
在发生
国际关系
行动小组
采取何种
efinite
▁Joseph
▁dominant
▁specially
祸害
7%。
iga
▁秘鲁
不论是
年通过
投资于
的一套
可以利用
日终了的
berland
▁(2006).
▁quarterly
▁Specifically
纯粹
▁我也
个成员
以便将
▁WMD
和平谈判
地球观测
▁Shan
▁About
▁auditing
▁thoroughly
付出
滴滴
环保
SOC
包括向
可以是
对社会
新的和
联委会
规范性
该进程
方面问题
空间活动
大规模杀伤性
▁ceremony
▁prosperous
地质
缺口
能为
、26
.96/
east
日举行了
民族解放
和恐怖主义
▁presiding
Or
大体
在美国
ción
交流经验
任命一名
差别待遇
政策框架
和世界银行
的人权状况
联合王国的
北京宣言和行动纲要
▁diligence
▁repercussions
但仍然
博物馆
第三节
第二项
▁科特迪瓦
▁noble
▁hostage
▁embarked
▁enrolled
复员和重返社会方案
▁accessing
▁inspectors
▁Implementing
▁civilization
专项
提法
萨米
和实际
扩展到
教科书
期间内
来支持
1969
-6:00
蒙特塞拉特
XXVIII
▁frank
▁overcrow
berlandesgericht
未满
沉默
浪费
以应对
的武装
晚些时候
ouvel
▁teen
▁deepening
▁deploying
▁unconditional
施工
月间
▁该部
务之急
劳动者
根据该
▁IPR
▁在某些
公职人员
贸易自由化
非洲经济委员会
▁Interpol
▁customer
ño
它所
传统上
电视台
的一步
的攻击
过程的
书面答复
第八届会议
▁sympathy
和平利用外层空间委员会
各省
睦邻
BER
▁每一
发挥其
合作与
的出口
的通知
▁Lad
使用这些
tised
▁unjus
▁veget
▁Honourable
免税
营造
/65
abo
在进行
违反第
都不能
1971
▁3-6
下列文件
受到影响
/60/5
▁1961
的事态发展
福克兰群岛
能力建设活动
▁Victor
▁hurric
▁Elements
▁拟
瓦加
邮政
Col
aro
他指出
但这些
的组成
艾利斯
Bang
▁主席团
价值观念
▁IFAD
使我们能够
▁Ituri
▁spoken
/2000/10
▁Referring
▁enrichment
以利
倾销
势力
制度中
尊敬的
的统一
pass
定型观念
缅甸政府
▁Clearly
▁avoidance
初始
加尼
日于
爵士
种子
起了
边远
违规
随之
ben
修订了
专题小组
生活方式
通过以下
▁barg
▁小组认为
的所有国家
欧洲联盟委员会
▁(1999).
ularities
1737(2006)
Parliamentary
与此
已为
稍后
在家庭
并使之
的监测
▁vit
▁Jane
所有国家都
的研究报告
区域和次区域组织
Financing
companied
国际刑事法院罗马规约
▁Trusteeship
MA
血统
大会上
或多个
每一项
第十六
ISAR
agad
具体规定
提出任何
该缔约方
,1992
ashes
avana
▁Names
urately
▁spiritual
大会第二十三届特别会议
之家
布宜
被用来
ilia
rack
orted
提供进一步
方面的能力
达成的协议
▁哥斯达黎加
陈规定型观念
▁fabric
▁passport
▁expiration
itc
▁现有
星期四
的速度
相关性
至迟于
beit
密切联系
利害关系方
▁indefinite
伊图里
十年中
并利用
数量的
June
▁57/
▁ICA
义务教育
共同目标
包括增进
相关机构
▁1514
▁有人认为
维和特派团
诺斯艾利斯
financing
▁offender
▁executing
▁destabilizing
不经
日志
沿岸
就可能
是什么
第十七
等方式
训练所
▁Uni
有人认为
▁chains
▁earned
三年期全面政策审查
▁customers
▁retaining
▁broadcasting
乃至
▁Ox
可以对
土著和
将促进
幸存者
的多边
脆弱的
370/
缔约国对
▁恐怖主义
▁这些国家
两年期预算
presid
▁Drought
▁ensuing
phetamine
▁Claimant
同性
征募
135
asm
/60/7/
人权委员会的
/2001/2
▁battal
▁matrix
布宜诺斯艾利斯
▁Controller
备灾
才会
访谈
Pol
▁NA
年第二
▁4.3
▁Kal
方案拟订
有限公司
瓦加杜古
▁sell
ospace
▁(1994
▁Fellow
▁conveyed
▁pursuance
▁简
/04
ITC
▁成员
并规定
第五章
组织或
.10,
紧急行动
进行全面
有助于实现
▁broadening
分成
日向
制度化
就不能
居民的
生产率
的教训
第一届
otel
▁Ger
的人力和
▁green
▁shell
▁presently
▁expectation
缩减
词语
发展与
ICCD
▁“6.
.9/63
▁Full
▁人道主义
联邦共和国
▁broadcast
仅为
动乱
录音
据以
架次
159
7).
afa
以及将
在教育
开发和
▁36,
妇女担任
知识管理
研究结果
useum
举行的关于
真相与和解
▁utility
▁catalyst
使用或威胁使用核武器
▁Significant
又有
并能
引人
要对
订于
误解
高峰
GEF
中纳入
向公众
卫星系统
和赞比亚
角度来看
▁hect
▁Maria
▁Target
agadougou
▁Mohammad
▁capitals
▁concessions
俄文
分销
牲畜
陷于
203
关于其
前提是
政府于
2020
▁hot
正在执行
▁orphan
前南斯拉夫境内所犯
liquidated
.49
▁解决
所设想
▁pip
世卫组织
▁1983
部队指挥官
efficient
服装
此前
阿比
▁另见
包括了
地解决
根据本
▁39,
▁办事处
在科索沃
大会注意
提供这种
▁borrow
▁Antonio
▁Francis
▁implicit
processing
▁borrowing
▁dependency
▁MT
▁所载
单独的
和越南
并防止
第一条
tario
▁exert
▁upper
气候变化问题
▁Regret
▁intense
阿拉木图行动纲领
▁milestone
▁initiating
▁deliberately
▁contravention
挫折
牢记
2),
ICA
下文第
也应该
技能和
的情形
uate
▁sad
人人有权
完全赞同
航空航天
▁非洲国家
方案和预算
有针对性的
▁我们认识到
▁judgment
▁everywhere
▁initiation
▁demarcation
中介
将就
患有
MSP
已通过
持有人
第五次
.03.
▁diox
▁1993.
ierarch
▁struck
小岛屿发展中国家的
▁conscienti
jö
奥林
▁Fl
十三条
受害国
多层面
对全球
的材料
违背了
atab
▁12-
▁Mas
retro
vists
▁trou
国家发展战略
▁UNMOVIC
▁________
Netherlands
▁invitations
▁disadvantage
▁standardization
两天
57/
和宣传
在本国
和秘书长
COSUR
▁theft
▁deeper
▁委员会关切地注意到
PP
一律
限定
的授权
▁Bud
▁Juan
▁Rich
的各项措施
宗教或信仰自由
amination
▁evictions
So
113
和第五
报告时
有充分
onso
打击洗钱
有所减少
随函附上
号决议决定
联合国所有
ERCOSUR
提请委员会注意
sustainment
▁Establishing
拨给
法医
occ
为发展
和解决
▁Cas
▁piv
▁在审查
会议开幕
普遍加入
该工作组
国际法律文书
对妇女的暴力
第二十三届会议
黎巴嫩临时部队
ationary
function
▁extradite
▁summaries
▁Transboundary
并行
送回
扩大的
fold
ález
▁两年期
做好准备
商定结论
因为这种
恐怖活动
持续存在
日大会第
通过谈判
▁结论和建议
▁frozen
▁联合国儿童基金会
▁Southeast
▁dismissal
▁Supporting
▁unresolved
拥挤
策划
附表
高达
▁当时
、22
我们还
工作语文
我们已经
▁这次会议
、1997
▁Enforced
▁tentative
安全理事会主席的同文信
SL
则为
异常
暴露
游行
报告期
的商业
▁为确保
友好关系
国家执行
核心资源
▁CERs
▁Prol
/55/30
▁1992.
日星期一上午
▁brutal
▁operator
▁demanding
▁approached
▁peacemaking
NO
](
25%
▁尤其
办法的
和疟疾
分摊会费
多哈回合
提出保留
立法措施
缔结一项
见本报告
▁Does
▁verb
▁Temporary
▁complying
公民及政治权利国际盟约
或任何
附件四
▁God
作出裁决
积极支持
而造成的
inity
▁vice
文化多样性
采取必要的
▁2008;
▁ruled
▁abused
▁weekly
▁indictment
不等
学年
教养
会导致
政府还
简报会
西岸和
飞机的
令人关切
家庭生活
▁Publ
有效地执行
▁Primary
regulated
▁Suppress
▁founding
▁reconcil
▁Commodities
▁objectivity
传送
4.4
▁用于
使她们
在最近
奥林匹
的呼吁
phen
判处死刑
在其关于
安排工作
核裁军和
的观察员
维和行动的
▁dumping
石棉
就不会
由一名
的非洲
▁Dag
人民权利
委员会与
竞争法和
▁sexes
▁Arctic
▁Increase
之以
姆斯
毫米
清算
▁3)
实行了
▁Raj
▁mus
▁专家们
伸张正义
当代形式
政策制定
订约承办
▁aren
▁persu
四届特别会议
高级别全体会议
▁drivers
▁adequacy
▁approving
▁cumulative
以俄
家中
归于
机动
She
不断地
为改善
应视为
的货物
被逮捕
落实情况
财政支助
▁119.
▁UNCC
▁回顾大会
▁Thomas
▁relied
非自治领土人民
▁Martínez
▁再
号码
明白
是一
神圣
App
ako
▁牙买加
改革方案
▁120.
秘书处工作人员
▁Equipment
▁freshwater
▁streamlined
'.
上有
也为
通道
Man
女士和
损害的
的部门
iche
▁217
▁mot
战争罪行
日的报告
的协助下
▁Hamp
▁wake
ecosoc
可持续发展的
▁Immunities
▁奉
环卫
Joh
哈马舍
▁新加坡
一段时间
的修正案
资本流动
▁还注意到
iliation
人工
编拟
.1-
并作为
应用于
Note
Prom
第十九条
iding
进行的活动
▁upheld
希尔
重振
155
▁Fa
▁农业
其中的
安圭拉
该会议
conf
▁我现在
一开始就
以俄语发言
武器的公约
▁2002;
号决议的要求
/2000/4
eliness
元首和政府首脑
▁Ontario
▁monopol
▁steering
▁阿拉伯叙利亚共和国
很小
纪录
终身
5.3
及以上
和南非
已完成
ulty
包括提供
▁Econom
▁Colombian
▁contracted
盈余
▁是否
经历了
54/1
▁You
促进妇女
成果预算
法律程序
违反国际
indust
licity
▁Hammar
巴勒斯坦人民行使
▁defences
▁jeopardize
▁interviewed
2。
对非洲
正在为
▁Bul
国际商定
我们不能
按委员会
有效利用
联合国人员
艾滋病问题
reported
▁abolish
▁promises
▁supposed
aggregated
选票
和分发
恰当的
▁政府间
▁详情请
脆弱性和
造成严重
哈马舍尔德
▁Sheikh
▁rigorous
▁Ouagadougou
▁Identification
仓库
学者
会晤了
和做法
的各方
的这些
社区和
also
一致同意
偷运移民
快速部署
提出申请
针对妇女的
▁2,000
▁不结盟运动
非附件一缔约方
▁Olympic
▁pivotal
▁constructed
股东
部和
从而为
▁wis
所使用的
没有一个
现行法律
▁bold
消耗臭氧层
arctic
▁ambig
▁discon
▁Improved
▁schedules
▁Rapporteurs
年以来前南斯拉夫境内所犯
频率
不妨碍
▁2.7
annex
icine
▁(4);
▁SIDS
发表的意见
▁(1990
▁2003)
▁Marriage
▁Associations
》:
增添
封闭
Reg
国籍国
或区域
指示性
▁Oil
的国家和
亚洲和太平洋
将在本届会议
100,000
▁endanger
▁Privileges
▁multicultural
两用
催化
▁Ke
的决心
▁122
大会现在
将进一步
▁Pret
的工作安排
经济和政治
▁ranks
▁activists
▁nutritional
亚非
年级
▁PA
▁总体
众议院
将导致
投资的
是基于
第五条
网络的
创造就业
各项规定
无法获得
罪犯待遇
metal
tiago
▁kits
▁truc
有关的所有
▁scales
▁relying
人与
小国
年举行
的一位
的女性
.3),
▁Kou
日伊拉克
核武器的
综合方案
代表的请求
履行其职责
▁Positive
▁stemming
............
草案中
Marc
武装团伙
深为关切
跨国犯罪
cores
世界各地的
联合国其他
ounger
▁Girls
▁rooms
▁Prince
▁Offenders
▁accurately
Obs
WFP
可包括
和体制
军用飞机
ercent
▁预防
得益于
或起诉
拘留所
星期二
裁研所
▁Had
▁董事会
奥林匹克
更加重视
▁Abid
任务范围内
▁alcohol
▁Strongly
▁favoured
▁expensive
联合国人员和有关人员
▁departmental
制宪
73(
▁认可
以便加强
剥夺自由
红新月会
▁mode
▁happy
▁wound
▁Employ
▁Unlawful
▁suppress
▁injustice
长官
fam
也同样
优先于
在总部
urid
▁$20
▁据估计
不必要的
duced
▁gold
侵犯人权和
裁军问题的
ansing
engers
▁2001)
▁委员会决定
▁(2005).
▁surpris
▁Abkhazia
▁Indebted
▁undertakes
愿景
投了
整理
防空
也应当
及时地
数额为
的尊重
voys
主导作用
合作协定
民航组织
贸易协定
▁这方面的
iances
土著人民国际十年
▁Approves
▁furthering
▁Continental
在职
已对
350
SAT
、32
所造成
lave
人员配置
关税壁垒
1514(
▁55/1
▁noon
▁IPSAS
▁Phase
▁deems
▁Beyond
ouvelles
▁Commends
▁Eritrean
▁factions
.:
La
占据
可使
起点
(7)
▁提议
对其他
降低了
ixed
东道国的
注重成果
监测系统
紧急援助
禁止和惩治
▁safer
届缔约方会议
ronically
.6/
13.
国际日
延长到
必须向
状况和
考虑了
▁Pet
政府认为
▁会议文件
▁accus
▁suspect
▁physically
▁encompasses
日后
规格
Per
oro
▁发言
协调的
或加强
撰文人
▁Yes
人的发展
在此方面
提出一份
▁罗马尼亚
特别是那些
▁第一委员会
▁season
▁Hampson
▁Forestry
▁assignor
▁excellence
▁intentions
信件
已婚
▁波兰
/51/
61/1
cile
必要行动
服务部门
要求缔约国
解决这些问题
▁essence
▁culturally
▁documentary
▁furthermore
▁Collaborative
传媒
杀虫
遗余
uit
考虑在
青年和
TAPM
一个关于
对伊拉克
进行评价
enger
适当考虑到
委员会工作的
生物多样性的
老龄问题世界
▁tended
▁Handbook
▁%
休息
克隆
行之
预料
20)
uff
男子和
▁IPU
信息中心
政策问题
▁Sand
全体会员国
武装冲突中的
▁critici
▁volatil
▁credited
切实享受的各种途径
共存
度和
列入了
可以从
哈瓦那
核生化
派遣国
▁ODP
采取一种
▁121.
▁2007)
▁关于议程项目
不可剥夺的权利
▁interact
▁贸易和发展理事会
▁extremist
▁如何
个月的
主题是
调查的
通常是
roit
努力促进
我们应该
见第二章
rique
ourced
▁quest
ODA
▁cy
▁赞赏
批准书
/222
体育运动
有所不同
生境议程
越境转移
重新审议
不结盟国家
开展工作的
Norway
组织和塔利班
▁rarely
斯洛伐克共和国
第二十二届会议
▁getting
一代
年上
怎么
▁业务
的大会
被称为
资金和
转交给
▁publicity
大会第二十届特别会议
▁technically
熟练
著名
.41
JIU
中国的
年届会
并特别
的设施
经社厅
usive
▁123.
国家委员会
▁Depos
▁Counsell
▁exporters
▁recovered
▁irrigation
▁politicians
▁Technologies
多氯
意思
打死
旅馆
衰退
70/
99.
▁此项
在加强
层面上
性别和
所列的
把这些
更美好
生物和
的宣传
▁突尼斯
▁厄立特里亚
endance
▁arisen
大会议事规则第
▁Freedoms
▁hierarch
▁diffusion
▁2002-2003,
▁discovered
包装
埃拉
就与
早婚
产生于
但它们
和专家
和获得
回顾其
请求国
▁葡萄牙
各种形式
的国家中
行政助理
这一建议
这种现象
▁CCPR
▁biom
制定和实施
受影响国家
补充议定书
/2004/6
▁patent
▁literature
WS
并被
汉普
各阶层
的前任
类似于
/119
CRIC
onym
▁3.5
没有提供
继续审查
▁Clar
与国际社会
方案和活动
▁Donor
▁又请秘书长
▁Taylor
▁Language
▁restructure
前南斯拉夫问题国际刑事法庭
(7
Me
即审
累计
行列
▁缺乏
▁$12
▁169
有关组织
▁Observ
▁stopped
▁Collective
)《
马尼
下降了
期徒刑
的举措
视需要
▁SAR
审计报告
对其进行
astes
osoph
▁bure
▁起诉应对
signed
▁Iraqis
▁exported
大会第五十七届会议
▁incomplete
Na
RY
产科
滥杀
速效
会产生
推动了
政策与
此之外
的袭击
和平倡议
方面存在
这一主题
▁grew
▁samples
▁obviously
▁Proceedings
感觉
框架和
eden
▁USA
发生严重
复员方案
电信联盟
认为这是
▁Stra
项目事务厅
▁Kabul
▁González
Be
UA
产后
应受
、33
和财产
的产品
遗余力
Ital
mann
以色列对
做出努力
各国之间
和卢旺达
▁fled
恐怖主义和
问题委员会
ximity
▁corrid
▁arranged
▁purchased
▁shortfall
▁instructed
▁sensitization
▁differentiated
可将
虚拟
转为
132
1973
▁爱尔兰
考虑因素
Field
▁122.
▁Real
指出的那样
特别会议上
▁surge
▁asking
安全理事会改革
▁totalled
国际人口与发展会议
不让
写信
犯人
当局的
法院在
idden
estine
forces
▁holid
▁upgra
uridical
▁expelled
停滞
勇气
搁置
Alg
▁Ay
只限于
部长和
仍在继续
努力加强
帮助各国
极其重要
第三部分
/2004/3
/2005/2
▁Guided
▁Havana
▁clashes
▁hopeful
▁Guidance
▁honoured
▁shipment
▁委员会敦促缔约国
▁employing
ür
化物
▁附属
关注的
将审议
所表示
是非常
提高公众
▁请将本信
前所未有的
问题的讨论
.5/58/
▁1999;
▁broch
▁distribute
▁presumption
,[
否定
面谈
.5)
chr
doc
及其在
和瑞典
将按照
的内部
body
以及这些
国际劳工
生活水准
飞行任务
相关的问题
itorial
▁scaling
▁Differen
▁Antarctic
▁Observers
▁pragmatic
▁Engineering
学和
它与
搜集
洛因
办公厅
医疗和
居住地
都应该
cend
▁166
▁Kat
上次报告
和冲突后
第二条第
阿卜杜勒
▁invo
上的担保权
向恐怖主义
公约和议定书
/2005/3
第二次定期报告
▁machine
▁exporting
▁aggressive
▁colonialism
函件
而又
12/
GDP
与男子
使所有
公民和
这也是
48/1
和新西兰
方案概算
lares
angani
▁shelf
磋商达成的谅解
▁Replace
▁tortured
▁shortages
▁供
起见
217
cha
▁SO
内部的
和训练
有争议
人员编制
保护妇女
所确定的
-2013
▁Hosp
▁dece
通过联合国
▁Frente
▁absent
▁Dispute
▁Missile
▁demobil
▁congress
▁decreasing
和二
静止
决定性
▁4.4
发展进程
的报告和
宗旨和原则
的参考文件
▁Renew
▁adjud
business
▁Disabled
▁neutrality
▁contamination
卡车
原产
听询
弗里
▁PF
人受伤
信用证
将不会
情况中
损害了
科先生
初级教育
提高效率
的阿拉伯
mense
uster
▁第二部分
的国家方案
onized
Algeria
▁alliances
▁supporters
▁acclamation
▁Transparency
▁Proliferation
外界
将能
演习
(8)
GEN
或可能
是国家
本决定
美元和
作出任何
工作要做
举办了一次
▁沙特阿拉伯
号一般性建议
retrovi
Economic
▁inflows
▁younger
▁Periodic
▁disengagement
ds
争辩
五项
▁Gas
▁lag
▁第三次
向执行局
增强妇女
巴黎原则
文件草案
的工作和
经验表明
asive
▁adds
主要是因为
执行工作的
战时保护平民
▁immense
▁blockade
▁originating
三级
前者
教员
,15
▁产出
似乎是
单位的
和弹药
性质和
那就是
▁他们还
▁在所有
▁Laun
人权领域的
美国代表团
/2001/4
同盟
因果
已知
既有
海域
XXV
▁km
同时还
的系统
iber
prin
事先协商
即审即决
取得成果
尚未批准
通报情况
非法行为
先前磋商中
▁worse
我的特别代表
▁wisdom
▁advocating
▁Effectiveness
▁用
之为
感激
纳税
裁撤
鼓掌
240
票反对
aBDE
▁叙利亚
▁进行了
贸易谈判
▁2.30
▁Oslo
▁人力资源
联合国及其
公平地域分配
looking
▁Carlos
statement
NZ
优化
案子
或控制
小组认为
得到遵守
通过关于
ertion
共同国家评估
采取进一步措施
▁Francoph
▁handbook
▁substanti
▁precaution
不成
喀布尔
多部门
对执行
机构或
由政府
的集体
补充说
(2)(
/17,
密切协调
负责协调
▁synd
内陆和过境
政策和措施
▁ambass
▁exchanged
▁reconsider
▁validation
意在
▁事实
▁其后
反歧视
框架的
谈到了
▁Bro
之间存在
的所有权
竞争力的
者的国际法庭
▁exceeds
▁orderly
▁tariffs
▁Expected
▁sophisticated
09
劳资
爱国
间隔
非他
论坛的
▁OAS
自决权利
users
▁格鲁吉亚
在国际一级
▁fundament
▁associates
▁liberation
▁assassination
原料
库克
热情
204
6)。
7.5
8).
并加以
我现在
hran
rage
多边基金
观察员身份
.3/63/
▁Ninth
条提交的报告
1。
Gh
不少
尼科
格局
这也
采访
uli
或正在
捍卫者
职能的
被驱逐
▁62/
包容各方
建立和平
解放运动
对妇女的歧视
ristina
▁rescue
法律小组委员会
▁Reserve
视同
同意在
▁Pel
号文件中
当事人的
管理制度
,1990
有关国家的
国际研究训练所
▁describing
▁Maintenance
游客
漏洞
逃避
和商业
确定其
较大的
owed
▁Lord
所有成员国
政策和做法
▁Karab
和其他形式的
▁warming
▁verbatim
女子
受冲突
在履行
▁1.4
有关资料
美元用于
调动资源
的各项决定
信息通信技术
▁ignore
▁注意到秘书长关于
、31
全氟辛
并正在
应成为
犹太人
贸易的
62/2
▁52/
▁Sun
领导人和
▁55/2.
▁第六委员会
制止恐怖主义
naissance
▁Component
危急
多达
近来
它们是
成一份
的地点
arta
所有方面
提供法律
与其他国家
行使答辩权
Vienna
和可再生能源
▁Karabakh
▁narrative
▁consultancy
▁Developments
哈利
空局
3)。
ccc
ifa
和整个
应要求
elle
最重要的是
萨里奥阵线
entral
提供咨询服务
▁Eighth
代表的全权证书
isitions
▁defamation
德斯
收购
▁Fif
关于国际
有害影响
的有关决议
▁Valle
▁remedial
▁inflicted
已由
率领
:(2
Off
rup
▁据此
事件中
受到的
和瑞士
庇护所
类别的
编制了
abad
arth
rame
▁Rob
之间对话
供应商或
共同立场
区域一体化
禁止酷刑委员会
▁rationalization
争论
记入
谢赫
对任何
umer
健康问题
国际和平
成千上万
负责处理
rific
在本届会议
的重要意义
境内人权情况
两年期方案计划
fortunate
▁collaborating
bil
▁提出
上一个
持久的
以及建立
必须符合
救灾援助
about
astic
▁如上所述
提供资料说明
▁albeit
▁proximity
▁ineffective
基桑
归属
接管
热线
答案
遵行
HRI
osa
▁Up
人们的
使各国
执法官
非他明
以及国家
减少贫困
可以看出
POPRC
ority
▁runs
▁west
▁敦促各国
欧洲理事会
感到关注的是
ordinate
▁airports
▁offshore
▁interfere
人物
昂贵
1.3
▁越南
努力在
所承担
结构的
被告知
退休金
▁Lab
在国际上
采取各种
▁shot
▁1986,
▁compl
▁Confed
方面取得了进展
▁Interest
被占领的叙利亚戈兰
▁clarifying
NS
和睦
导则
省和
amm
都应当
▁他强调
债务负担
同时铭记
应尽可能
我们呼吁
被害人和
▁ICSC
影响的国家
所作的贡献
ranging
▁Managing
▁statutes
▁Pollution
▁horizontal
▁articulated
和大不列颠及北爱尔兰联合王国
听讯
国与
将刊
▁正是
路易斯
关于加强
密切协作
表示祝贺
实质性问题
Africa
▁pretext
▁Subparagraph
他将
jaw
供应链
促进在
出口的
制造商
的明确
▁5.3
▁Bre
▁我们要
分别汇编
将取决于
的环境中
贸易中心
这一做法
进行调整
▁具体而言
所有方面的
收到的资料
汉普森女士
公约任择议定书
▁imminent
▁preclude
▁converted
▁interconn
▁Disability
联合国难民事务高级专员
disaggregated
▁multilingual
/5)
260
更高的
核燃料
.157
▁Mob
▁flu
该委员会的
所产生的影响
核证的排减量
▁deputy
按委员会分别汇编
联合国安全理事会
▁reconcile
委员会主席的普通照会
▁unfortunate
少量
6).
不公平
仍然在
债务的
十年来
或社会
▁GAT
▁Top
地方法院
失踪人员
开曼群岛
uties
▁void
温室气体排放
1996/31
▁rating
ercentage
▁Mountain
▁delegate
伊斯兰外交部长会议
▁incremental
一案
以在
借贷
癌症
以及其
任务时
和职业
增长了
职位的
议会议
非军事
全面解决
土地使用
安理会在
财务细则
UNDAF
▁pret
进行了一次
▁Position
▁collapse
▁Requirements
作为安全理事会的文件分发为荷
原有
190
▁很多
向法院
和专业
最多的
肺结核
发生冲突
总检察长
遗传资源
/56/1
▁actu
visual
▁overla
istrates
▁withdrew
▁compounded
支援最不发达国家行动纲领
举证
信号
充实
沃尔
30)
哈马斯
年之后
承担起
拟订了
挑战是
杀虫剂
的三个
▁我们的
南部地区
审议工作
▁Town
儿童和青年
▁Plans
▁globe
人道主义组织
▁Trends
▁Hammarsk
▁Nationality
)?
50.
、46
和确保
国家中
jöld
▁unh
召开会议
各位成员
的主要责任
▁bills
▁Boards
联合国经常预算
▁preceded
▁Stability
▁volatility
▁announcements
弗朗
炮弹
送到
▁我的
颁布的
lige
▁182
▁Inj
基桑加尼
报告草稿
rible
▁124.
审查和评估
通过的决定
难民地位的
以及非政府组织
metallic
▁forming
▁stories
▁unexplo
▁hectares
预防犯罪和罪犯待遇
▁discontin
▁timeliness
▁Neighbouring
▁伊
五条
深海
盘旋
▁总部
中受益
仅仅是
尽最大
的数字
Kuwa
▁132
不是一个
坚持认为
的最重要
▁allot
▁thing
西撒哈拉问题
▁Learning
▁preferable
▁preconditions
▁provisionally
▁拉
创始
塔什
nam
▁FM
和透明
增长和
erts
▁Bad
在黎巴嫩
duate
erver
▁deplo
▁overe
打击贩运人口
日星期五上午
▁Palais
▁forget
▁cleansing
traditional
▁2004-2005,
▁appearance
▁impediment
德黑
施暴
试行
del
之外的
录病毒
本阶段
选举中
那些在
.15,
▁在这种
方案活动
方面具有
这些规定
▁危地马拉
▁有人指出
各附属机构
ECOWAS
Syrian
urches
▁Truth
▁UNCLOS
社会和经济发展
▁近东救济工程处
▁Distribution
fo
指望
毁林
▁AM
的迹象
/13,
icos
▁索马里
化学品和
各方面的
本国国民
chair
tiary
ychel
就这一问题
与开发计划署
▁Mutual
▁Robert
和平与安全理事会
▁Inalienable
▁Preliminary
▁reconnaissance
把它
▁她说
也希望
损失的
理解为
需要为
▁(25
▁CERD
秘书处编写
restim
▁Depart
号决议的执行情况
▁conscientious
▁qualification
充作
和梅
因于
失效
当天
慰问
旱灾
突然
辩称
透露
那个
▁中心
并改善
德黑兰
能源和
▁6.3
几乎没有
制裁措施
可以根据
联合呼吁
这一原则
这些会议
▁发达国家
▁私营部门
第二委员会
▁farms
侵犯黎巴嫩领空
▁Seychel
▁Success
intensive
▁premature
▁Revolution
▁prioritize
加索
困扰
机器
边防
享有的
和权利
将加强
改变了
的订正
news
wood
▁137
个缔约方
因为我们
实际情况
有人指出
理事会议
▁1976
和社会发展
暂行特别措施
▁Condem
经费分摊比额表
December
▁importing
▁backgrounds
吸烟
国有
年有
电池
相等
讲座
也不会
和平建设
power
▁beat
某种程度上
的妇女人数
与发展中国家
▁Charles
▁intensity
▁exhaustive
▁variations
▁corporation
卡因
多么
是不够
▁$5,
加以考虑
积极贡献
该办事处
十分重要的
UNAIDS
▁Hamas
▁ICCPR
▁Sport
的权利和义务
emoration
所应
时和
6%。
叙述了
款所述
死亡和
混合物
.2).
aves
初级保健
大会决定
海外领土
重新部署
▁大会决定
讨论的问题
一般临时人员
▁sciences
▁Kisangani
▁outsourcing
▁specifications
南极
的无
era
中获益
而没有
▁170
▁Cod
▁Kor
包容性的
适合儿童
▁crew
▁talk
及其成员国
.6/62/
Sweden
/2000/2
english
viously
military
▁volumes
▁warfare
▁overtime
▁selecting
▁Conditions
▁Seychelles
▁childbirth
秘书长和安全理事会主席的同文信
139
▁Vo
不具备
奥斯陆
支助下
1976
▁7.1
▁die
促进人权
教育系统
inees
安全与稳定
▁thrust
▁indicted
▁upholding
▁Adaptation
它还
应能
边际
和鼓励
▁$14
▁在执行
密切关注
本报告的
MONUC
▁Merc
▁专家小组
的情况介绍
▁enjoys
▁habitat
▁circular
联合国妇女发展基金
generating
▁Dissemination
北欧
接替
注明
过早
公民权利
合作组织
得到充分
.5/54
美属萨摩亚
政府间专家组
日星期三上午
▁(2008)
不法行为的责任
▁curtail
▁harvest
▁benchmark
▁Publications
就第
起源
达格
(5)
▁律师
▁采购
以增加
和第十
对某些
独特的
被要求
问题与
▁bom
并有助于
航空公司
▁委内瑞拉
的国际努力
unfccc
▁Nation
▁string
▁warmly
所有人权和基本自由
▁Religious
▁Regrettably
▁Hammarskjöld
时将
60/
▁条例
监督下
▁tom
再次强调
工作中的
242(19
▁1980,
▁prerog
▁societal
▁abortions
▁globalized
▁peacefully
BB
天基
接洽
该决定
和中国的
外国投资
开展对话
当地雇员
所占比例
案例研究
▁pays
▁我们赞扬
orship
▁Point
▁heroin
▁robbery
▁Prepared
▁confusion
▁threatens
▁vigorously
▁unaccompanied
含量
在一
抽样
PIC
ika
形成了
探讨了
权力和
▁121
政府已经
时间安排
该问题的
这些文件
重新设计
XXVII
▁126.
education
trafficking
捷克
日为
早先
细菌
通盘
反对票
和项目
对关于
形成的
疾病和
ilip
▁135
飞行情报
Italy
women
不平等现象
的调查结果
▁Broad
▁筹备委员会
▁Methods
▁filling
刚果民主共和国的
▁sincerely
▁constrained
▁à
合成
蒙受
-2)
Leg
▁Ru
▁中央
以期在
却没有
性传播
-3),
keli
▁2).
▁Pin
会议事务
所引起的
▁2.45
▁Iden
酷刑受害者
▁Guard
▁萨
rap
▁整个
只是在
完成其
提供与
相联系
Free
edro
司法协助
进行改革
aucra
▁127.
▁Just
▁flee
itives
秘书长的说明
▁secondly
禁止和惩治贩运人口
retroviral
▁Identical
▁revitalize
▁authorizing
发票
坦率
比拉
以改进
船旗国
bour
代表大会
必要条件
提交委员会
▁repris
viations
由代表团成员一人署名
社会和文化权利委员会
▁registries
▁tripartite
▁attribution
▁埃
司机
天气
恶性
▁4:
▁谴责
业务的
和财务
20),
step
经修订的
▁51/2
人权问题的
侵犯人权的
▁FARDC
与可持续发展
▁Columb
kelihood
就本决议的执行情况
▁Societies
▁warranted
分区
查访
模糊
潜能
,11
8),
Tur
中欧和
和福利
和警察
在上述
各当事方
许多其他
/58/3
▁125.
▁prud
▁solic
大会议程项目
▁landsc
主权和领土完整
▁Besides
▁conferred
▁Presentation
▁substantiated
▁constituencies
▁及
人对
作好
尔科
退还
omé
▁UK
▁公约
即使在
有一项
有效率
办公室的
十分重视
妇女获得
委员会希望
采取适当的
苯丙胺类兴奋剂
▁2009/10
▁staffed
▁catalytic
▁redeployed
▁principally
RI
SE
考验
idi
ère
以及同
固有的
平民的
都知道
aped
拒服兵役
歧视妇女
办公室主任
▁2004),
▁tropical
▁compounds
▁criticism
▁travelling
▁controversi
▁perceptions
▁stakeholder
字母
弗雷
有一
百姓
荣誉
▁HK
▁授权
为保护
他希望
以鼓励
在政府
其中所载
并通过了
tifiable
举行的非正式协商
被占巴勒斯坦领土
▁fugitives
▁occupations
3。
展现
电文
租用
和一般
影响力
每届会议
ridge
▁128.
实况调查团
▁Index
我国政府指示
▁demilit
▁unreason
▁imprisoned
扩张
是很
零售
▁涉及
以增强
并增加
来源国
▁190
▁IAS
全氟辛烷
妇女平等
尤其是对
▁这些问题
特别政治任务
不顾
8%。
▁估计
主持了
和独立
日以前
核安全
贫困线
56/2
▁425
▁Nine
生态系统的
苏丹特派团
▁hiring
▁Command
▁reformed
▁allocating
▁impressive
抵销
清真
eda
ela
▁宪法
▁独立
受战争
和机制
中等教育
主持会议
不可或缺的
建议缔约国
338(19
formal
▁titles
供应商或承包商
各自应分的数额
▁Santiago
▁委员会欢迎缔约国
▁peninsula
ministerial
▁likelihood
▁criminalization
揭示
标明
两个月
在各自
法律或
/283
容易受到
获得成功
▁jure
的法律制度
采取了一些
日安全理事会第
ophysical
执行情况特别委员会
▁委员会赞赏地注意到
▁undermines
巴勒斯坦人民行使不可剥夺权利
下称
印在
另行
暗示
热内
南共体
非暴力
ills
▁5.4
▁“7.
▁让我们
▁这一点
与秘书处
仍然需要
以及执行
和技术转让
在该决议中
合并定期报告
loyment
▁theory
▁deletion
▁replenishment
界线
13(
425
bro
▁43,
当务之急
预算拨款
▁61/1
▁Afro
▁push
政策和程序
法律规定的
维也纳宣言
和平解决争端
一切形式和表现
▁Determin
▁adapting
hy
根深
火灾
alo
事务局
和挪威
就没有
才能够
清真寺
第六次
高加索
ugal
具体步骤
▁sake
全球和区域
提出了一项
的国际标准
非常任理事国
mbrella
▁tasked
▁qualify
方面发挥重要作用
▁Philippine
Ms
两架
中午
时效
是将
沙姆
牵涉
该人
▁条约
合法化
替代性
热内卢
是不够的
是否需要
编列经费
▁我们感谢
▁有鉴于此
▁议程通过
全体会议的
和委内瑞拉
所承担的义务
社会经济发展
国内生产总值的
3:00-6:00
▁Safeguards
军方
和未
如在
6.5
IMF
▁Pr
▁计划
表决前
共同事务
是重要的
解决方法
该届会议
重大作用
额外资源
▁Trib
▁cuts
▁各代表团
根据联合国
稳定与结盟
里约热内卢
化管战略方针
日星期一下午
▁purview
▁strongest
布林迪西联合国后勤基地
之前的
及时和
结束的
▁PCB
司法部长
案文如下
民主联盟
letter
/25070/
2002-2005
▁offensive
▁evacuation
▁Colonialism
、41
在题为
女性的
Port
国家计划
▁129.
▁bombing
关于儿童卷入武装冲突
▁permanently
▁simplification
借调
停战
助产
平面
1.4
▁卫生
列举了
在涉及
该草案
▁(8)
法律问题
▁Club
▁Fail
在内的所有
的必要条件
-2006)
Princip
▁synthe
▁payroll
▁Treasury
▁detriment
差旅
▁运输
段规定
详细的
▁Sad
▁该小组
参考资料
地方社区
这一要求
这些标准
▁根据大会
参加了会议
机构的代表
Develop
angered
LE
TU
不但
修理
前几
标识
递送
地使用
监护人
组织法
上文所述
优先地位
并将继续
inous
▁doct
▁unus
有关缔约国
▁match
members
▁各项更正应在
土著人民权利宣言
▁desirability
▁organisation
受人
究竟
自力
也无法
人民和
根深蒂
▁Bak
儿童提供
关切问题
员额配置
国家主权
国际法和
控制措施
▁shop
▁patri
塞拉利昂政府
持久性有机污染物的
▁subregions
▁reinforcement
偏低
还说
和审查
培训的
安全网
工程师
结构性
ache
▁45,
▁lob
完全同意
施加压力
occup
关于买卖儿童
▁Oceans
▁myself
紧急救济协调员
▁Changes
▁cleaner
▁2004-2005.
▁Psychotropic
.1(
▁各方
反应堆
可发挥
和海洋
所具有
阁下的
▁Hos
▁该中心
根深蒂固
▁Park
▁Grand
▁varies
▁Heavily
和安理会暂行议事规则第
和印度
是否应
onie
▁Jac
如何能够
并认识到
我们正在
▁wild
性别问题的
欢迎秘书长
.6/55/
▁opposite
▁Attendance
▁consequent
制成
参观
掩盖
3.2
9),
▁分析
也不是
各国对
在建立
很明显
通知你
OSCE
任期三年
特殊情况
考虑到了
需求评估
qurah
基础设施的
缔约国没有
森林问题论坛
▁Provincial
▁interactions
兵库
罪名
不接受
将他们
的步骤
精神和
迅速地
北京会议
安非他明
这些条款
艾滋病感染
jaweed
融入世界经济
strateg
▁colleague
▁mercenary
▁motivation
以致
住院
扫雷
远见
▁立法
主题为
值主席
在各个
正常化
-10/
▁妇女在
国际论坛
这是因为
nders
▁(2),
▁民间社会
各区域组织
方面的资料
▁Turks
使发展中国家
▁ECOSOC
▁Quality
▁Ugandan
▁asserts
▁Discussions
扎伊
数值
模块
的或
HIV
▁XV
▁增强
和持续
该部队
XVII
受到保护
国集团加
▁2011
▁这项工作
▁除其他外
日星期三下午
是必不可少的
.9/631,
▁Damage
▁twelve
▁academia
▁maximizing
▁indivisible
▁incorporates
存货
说过
▁我在
来执行
被纳入
▁Jak
其中许多
微型企业
解决问题
这些武器
▁Mark
经费筹措的
▁1987,
▁Again
▁Motoc
▁Older
技术合作项目
......]
▁dioxide
▁clarifications
大有
7%,
Bar
adh
以便于
听证会
援助和
数百万
涉及的
的支出
经济区
▁quo
▁rot
个案研究
、1996
与恐怖主义
决议和决定
方面取得的
▁bonds
▁droits
▁outlining
▁prospective
何塞
兼容
印第
报销
是个
注入
▁Ho
将提交
甚至在
附近的
city
▁卡塔尔
严重关注
的讲习班
背景资料
证据规则
▁审议大会
更多地参与
转型期经济
各国议会联盟
▁animal
▁silent
票弃权获得通过
▁Enhance
▁promised
ny
三角
全环
民选
流向
聘请
2);
个月内
件索赔
可以说
成为第
的愿望
的最不
朝鲜半岛
这种状况
家庭和社区
预防艾滋病毒
▁Tehran
▁voices
▁Traditional
▁Reproductive
▁Approximately
5:
商用
学前
才可
评审
gas
sim
一个月
他们是
来源的
检查员
ekce
▁2.8
的原因是
NEPAD
或国际组织
.5/61/
▁联合检查组
inkages
▁2006).
▁George
▁device
▁ideals
波利萨里奥阵线
▁tomorrow
▁immigrant
均有
审核
探矿
6.4
影响和
需要时
所需费用
纳戈尔诺
被任命为
参加联合国
的各项原则
/2004/1
▁Janeiro
artmental
▁concurrent
做的
称作
过失
亚先生
欧空局
▁63/
▁Nav
发展活动
有所下降
heads
和建设和平
阿拉伯领土
▁Black
和儿童基金会
维也纳条约法
ourably
▁lodged
▁Heritage
▁psychotropic
6:
中型
▁
e
t
n
i
o
a
r
s
h
l
d
c
m
u
f
p
,
g
b
y
v
的
.
w
0
1
2
。
和
C
国
A
S
会
(
)
9
/
I
T
k
、
在
5
-
3
4
议
一
P
有
N
人
6
行
员
x
7
M
年
;
R
第
8
作
D
U
G
为
以
法
E
合
方
发
是
关
这
定
其
于
z
了
O
中
提
对
家
F
联
:
要
q
不
事
进
所
政
及
理
决
动
委
大
个
组
出
工
地
B
权
j
约
展
主
H
与
题
加
用
日
问
W
成
全
利
到
L
月
并
际
案
特
部
报
能
项
表
力
公
可
“
各
《
》
务
保
他
制
们
生
经
机
重
面
性
目
告
应
民
”
分
些
实
将
资
同
安
过
建
我
时
上
助
条
'
别
期
书
任
非
间
供
文
织
内
区
通
亚
该
持
或
程
下
意
平
立
规
长
本
多
基
协
社
斯
女
件
代
种
处
而
体
得
现
取
开
此
计
情
来
府
J
构
支
调
之
况
后
审
外
使
据
团
施
当
确
号
管
包
域
系
强
正
金
执
次
业
因
设
明
最
由
共
拉
续
活
自
受
秘
认
括
义
化
如
新
者
就
前
向
信
数
领
交
论
度
还
妇
标
高
采
统
查
必
指
需
入
十
求
解
办
请
济
尔
言
巴
V
K
预
已
准
专
划
美
产
先
则
洲
果
根
段
列
结
相
举
式
也
至
源
达
童
注
参
更
款
儿
等
教
措
战
缔
届
学
—
界
它
效
促
比
护
境
增
见
律
技
说
席
二
但
名
从
级
维
三
武
术
然
两
核
改
小
阿
被
世
须
何
责
物
尼
反
治
商
常
除
具
总
策
土
原
门
草
克
西
道
科
司
切
费
努
继
心
适
署
类
援
收
局
少
里
算
步
承
评
止
证
运
例
犯
视
示
都
口
没
额
无
元
害
接
监
服
庭
导
起
未
罪
响
马
军
影
职
位
育
选
点
布
量
器
环
%
易
料
兰
防
讨
派
息
研
做
备
五
样
贸
订
纳
南
略
减
考
识
附
集
子
球
难
坦
品
塞
许
给
照
编
获
复
海
突
且
·
限
四
致
族
充
述
宣
便
盟
欧
伊
病
罗
裁
训
消
[
知
记
造
]
判
序
队
财
益
虑
估
院
究
即
察
按
申
流
单
$
范
Y
份
够
存
索
冲
官
质
变
首
转
刑
哥
回
排
担
极
诉
勒
感
格
负
东
尽
架
场
恐
那
六
观
空
传
完
着
每
投
干
失
形
率
争
严
价
士
补
威
语
临
扩
测
培
涉
德
诺
势
水
瓦
危
础
健
_
市
*
仍
修
望
色
装
放
拟
近
询
今
贫
谈
歧
暴
整
直
边
容
咨
章
否
录
伙
伴
毒
击
农
留
希
框
网
予
依
围
艾
愿
很
推
怖
载
卫
只
付
赞
X
电
几
足
禁
险
移
筹
另
滋
占
室
顾
独
好
鼓
待
优
批
离
打
普
印
营
天
话
励
警
迎
清
积
始
广
控
身
属
捐
欢
手
融
般
林
令
让
再
革
班
尤
某
伯
宪
侵
障
万
她
状
免
吁
著
富
验
候
善
签
去
低
缺
群
命
气
众
居
住
俄
图
赔
债
配
享
散
劳
看
把
仅
督
值
象
困
遵
履
守
显
驻
越
洋
路
束
针
称
节
往
均
挑
卡
违
满
Z
引
互
检
牙
千
刚
•
素
私
挥
紧
介
男
绍
哈
型
创
初
英
帮
康
损
偿
模
岛
雷
丹
?
析
声
药
黎
厅
稳
呼
萨
带
养
层
概
密
疾
倡
北
习
穷
Q
想
综
坚
é
邦
乌
较
宗
埃
字
择
脑
急
尊
登
食
迪
货
坛
苏
断
企
灾
贩
泛
态
终
又
双
旨
胁
托
森
写
落
星
波
七
夫
午
置
购
速
阶
医
真
洛
深
救
残
吉
功
死
符
迫
络
票
碍
谢
沙
户
献
细
卢
太
银
遭
古
讲
释
瑞
随
鲁
塔
延
念
库
拿
简
敦
辩
周
粮
授
绝
副
村
青
才
风
纲
材
虽
汇
若
摩
闻
键
差
遍
贡
试
己
八
九
伤
返
房
破
米
停
访
久
渡
答
疗
恢
似
遇
城
王
征
销
输
召
奥
竞
精
卖
兴
轻
鉴
尚
降
弱
头
汗
罚
版
线
纪
校
历
播
杀
么
雇
详
爱
快
亿
师
遗
逐
染
超
映
衡
旅
沃
毁
帝
福
避
跨
乏
税
页
殖
底
隆
老
册
黑
途
亡
寻
景
拥
剥
良
允
早
送
远
省
伦
纽
嫩
汶
岁
遣
弹
余
透
你
拘
背
耳
灭
飞
骤
什
含
坏
绩
谨
昂
买
神
邀
乎
探
站
澳
贝
酷
母
端
朗
航
废
削
换
疑
叙
退
典
兵
固
厄
圣
陆
籍
贷
石
升
百
龄
赏
孩
暂
火
趋
殊
婚
听
荷
忍
股
诸
丁
连
角
曾
徙
―
佳
辖
阻
捕
败
旺
杂
盖
京
售
勤
摊
迅
媒
磋
墨
蒙
短
斗
姆
账
张
瓜
练
撤
储
截
车
课
迟
找
"
拨
撒
毛
圭
替
麦
径
词
潜
桑
假
射
志
贴
`
靠
讼
亲
半
曼
扬
廷
吸
游
台
惩
顿
弃
党
油
既
聘
污
薪
肯
菲
虐
追
腐
智
白
触
客
津
兹
阁
史
脱
挪
借
山
旦
酌
船
缴
踪
压
归
异
夺
卷
莱
惯
朝
妨
仲
恶
哪
炸
爆
屿
拒
缓
莫
攻
却
麻
币
颁
博
启
抗
距
赫
巨
脆
阐
讯
甚
抵
押
烈
宾
裔
套
贯
译
彻
父
走
浦
孕
滥
穆
泰
热
拜
稿
喀
州
递
堡
休
剧
袭
憾
央
耶
韩
钱
仇
循
闭
兼
驱
谋
赖
荒
缅
祝
漠
函
毫
港
渔
味
赋
招
邻
毕
甸
灵
怀
狱
戈
净
迄
思
惠
苦
伐
误
缩
幅
鲜
玻
谴
冷
疆
贵
ô
隔
馆
芬
孟
燃
洗
泊
温
谅
楚
颠
ó
植
激
幸
故
偏
í
忘
宜
巩
混
拖
幕
微
逮
唯
葡
杜
轮
片
租
韦
趣
恤
捷
红
筑
岸
á
萄
涵
恩
像
阅
摘
演
季
友
沿
顺
剂
践
封
坡
矿
陈
读
迈
辱
永
澄
辅
氯
鱼
侧
陷
敏
悉
腊
荣
圆
酬
丧
扰
乱
仰
敌
奖
帕
赛
攸
洁
柬
辆
华
蒂
诚
疫
繁
址
零
掌
笔
宁
淫
邮
露
庇
姻
寨
埔
匈
痛
贺
座
赤
奸
翻
役
乐
错
欠
舞
帐
耗
乍
茨
迁
奇
删
刻
阵
赠
秩
豁
镇
覆
辑
木
&
铭
倍
园
氧
聚
扎
光
梅
醉
填
陶
恰
纠
洪
旱
割
河
钻
默
徒
握
裂
宛
桌
碳
览
患
@
逃
忽
枪
累
操
=
辞
软
募
ć
渐
婴
醒
句
冰
妥
倾
奴
墙
扶
艺
宏
摆
宝
饮
苯
音
齐
欣
盘
卜
扣
囚
宽
缘
皮
叛
饥
俗
董
舍
伍
悲
贾
振
斥
刊
弗
彼
偶
佣
翰
档
码
甲
盲
谓
蓄
疟
诊
描
丰
姓
艰
欺
熟
杰
酋
乡
谷
慢
幼
孤
骚
频
症
凡
绑
剩
饿
眼
誉
>
渠
忆
佩
跟
庄
诈
亦
+
<
血
花
佛
嫌
旋
搜
扫
忧
逻
溴
轨
慎
锁
湾
冻
楼
逆
厂
折
吨
妻
迹
犹
凯
晤
沟
胜
遥
斐
雅
震
惊
劫
氟
臭
沉
奉
侦
驳
敬
捍
挝
蓬
晚
湖
香
链
旧
拆
堂
披
礼
牵
钟
ñ
铁
盛
撰
隶
汉
绳
柱
è
街
携
藏
舶
扭
树
袖
碎
氛
巡
隐
挂
倒
ö
胎
觉
弥
添
奠
辛
脚
呈
盗
牢
庆
兑
契
冈
券
屠
松
浓
霍
野
叠
勘
捞
牧
仪
绕
汽
末
阳
苗
箱
烟
壤
恨
屋
暗
煽
赦
拍
吓
祉
偷
陪
横
ü
盾
陀
辜
畴
à
静
块
怕
摧
虫
润
乳
辐
揽
胡
曲
劣
丈
抚
旗
峰
穿
泽
寿
弟
漏
遏
刺
乔
∗
薄
烷
伸
凭
懈
刷
祸
纸
竭
奋
炮
胀
纷
赁
寄
田
牲
€
右
怎
县
汞
臣
跃
宿
抽
虚
罕
啸
僵
膨
衷
廉
壁
左
搬
纯
谁
栏
乙
抢
兄
玛
矛
慨
乘
仔
蔓
酸
厉
纵
ã
枚
棉
惨
堕
铲
垒
羁
悬
纂
戒
荡
绿
夏
ç
峻
祖
焦
板
篇
缉
滴
甄
谐
插
慷
坎
钩
馈
洽
涨
淡
岗
慈
绘
龙
癌
斡
糊
浪
睦
俱
崇
液
酒
碑
蓝
箭
揭
雨
抱
坐
勃
赢
硬
烧
稍
勇
床
慰
逾
井
黄
抓
械
店
忠
愈
惧
阴
娩
诱
佐
畜
御
夜
肇
宅
窟
娜
巧
灌
伪
粹
丽
丙
滞
ú
宫
绪
厘
驾
耕
ä
摄
鹿
郎
喜
硫
叉
尾
拓
š
昨
仓
瑙
皇
娱
竟
掘
桥
赶
乃
铺
锡
醚
鸿
汲
雄
餐
衰
搁
罢
飓
衣
掩
淘
盈
肤
匹
汰
悼
慕
挠
亟
爵
辍
珊
豪
侨
挤
逊
朱
涅
礁
朋
牺
潮
催
挫
哀
辨
č
殴
粗
窃
荐
池
瑟
仿
胺
庞
弊
骗
菌
洞
铀
鸦
凌
卸
春
猛
驶
奈
肺
°
掉
甘
塑
掠
晋
牛
汤
卓
贪
粟
瑚
丝
舆
疏
拯
堆
宇
罂
吗
湿
埋
敢
哨
晰
盐
胆
仁
轰
尝
睹
艘
堪
狭
冒
琼
肆
顷
漫
寺
尺
旁
肥
旬
恋
